{
  "version": "1.0",
  "truncation": null,
  "padding": null,
  "added_tokens": [
    {
      "id": 6156,
      "content": "[UNK]",
      "single_word": false,
      "lstrip": false,
      "rstrip": false,
      "normalized": false,
      "special": true
    },
    {
      "id": 6157,
      "content": "[SEP]",
      "single_word": false,
      "lstrip": false,
      "rstrip": false,
      "normalized": false,
      "special": true
    },
    {
      "id": 6158,
      "content": "[PAD]",
      "single_word": false,
      "lstrip": false,
      "rstrip": false,
      "normalized": false,
      "special": true
    },
    {
      "id": 6159,
      "content": "[CLS]",
      "single_word": false,
      "lstrip": false,
      "rstrip": false,
      "normalized": false,
      "special": true
    },
    {
      "id": 6160,
      "content": "[MASK]",
      "single_word": false,
      "lstrip": false,
      "rstrip": false,
      "normalized": false,
      "special": true
    }
  ],
  "normalizer": {
    "type": "BertNormalizer",
    "clean_text": true,
    "handle_chinese_chars": true,
    "strip_accents": null,
    "lowercase": true
  },
  "pre_tokenizer": {
    "type": "BertPreTokenizer"
  },
  "post_processor": {
    "type": "TemplateProcessing",
    "single": [
      {
        "SpecialToken": {
          "id": "[CLS]",
          "type_id": 0
        }
      },
      {
        "Sequence": {
          "id": "A",
          "type_id": 0
        }
      },
      {
        "SpecialToken": {
          "id": "[SEP]",
          "type_id": 0
        }
      }
    ],
    "pair": [
      {
        "SpecialToken": {
          "id": "[CLS]",
          "type_id": 0
        }
      },
      {
        "Sequence": {
          "id": "A",
          "type_id": 0
        }
      },
      {
        "SpecialToken": {
          "id": "[SEP]",
          "type_id": 0
        }
      },
      {
        "Sequence": {
          "id": "B",
          "type_id": 1
        }
      },
      {
        "SpecialToken": {
          "id": "[SEP]",
          "type_id": 1
        }
      }
    ],
    "special_tokens": {
      "[CLS]": {
        "id": "[CLS]",
        "ids": [
          6159
        ],
        "tokens": [
          "[CLS]"
        ]
      },
      "[SEP]": {
        "id": "[SEP]",
        "ids": [
          6157
        ],
        "tokens": [
          "[SEP]"
        ]
      }
    }
  },
  "decoder": {
    "type": "WordPiece",
    "prefix": "##",
    "cleanup": true
  },
  "model": {
    "type": "WordPiece",
    "unk_token": "[UNK]",
    "continuing_subword_prefix": "##",
    "max_input_chars_per_word": 100,
    "vocab": {
      "JUMP_ADDR_0": 0,
      "JUMP_ADDR_1": 1,
      "JUMP_ADDR_2": 2,
      "JUMP_ADDR_3": 3,
      "JUMP_ADDR_4": 4,
      "JUMP_ADDR_5": 5,
      "JUMP_ADDR_6": 6,
      "JUMP_ADDR_7": 7,
      "JUMP_ADDR_8": 8,
      "JUMP_ADDR_9": 9,
      "JUMP_ADDR_10": 10,
      "JUMP_ADDR_11": 11,
      "JUMP_ADDR_12": 12,
      "JUMP_ADDR_13": 13,
      "JUMP_ADDR_14": 14,
      "JUMP_ADDR_15": 15,
      "JUMP_ADDR_16": 16,
      "JUMP_ADDR_17": 17,
      "JUMP_ADDR_18": 18,
      "JUMP_ADDR_19": 19,
      "JUMP_ADDR_20": 20,
      "JUMP_ADDR_21": 21,
      "JUMP_ADDR_22": 22,
      "JUMP_ADDR_23": 23,
      "JUMP_ADDR_24": 24,
      "JUMP_ADDR_25": 25,
      "JUMP_ADDR_26": 26,
      "JUMP_ADDR_27": 27,
      "JUMP_ADDR_28": 28,
      "JUMP_ADDR_29": 29,
      "JUMP_ADDR_30": 30,
      "JUMP_ADDR_31": 31,
      "JUMP_ADDR_32": 32,
      "JUMP_ADDR_33": 33,
      "JUMP_ADDR_34": 34,
      "JUMP_ADDR_35": 35,
      "JUMP_ADDR_36": 36,
      "JUMP_ADDR_37": 37,
      "JUMP_ADDR_38": 38,
      "JUMP_ADDR_39": 39,
      "JUMP_ADDR_40": 40,
      "JUMP_ADDR_41": 41,
      "JUMP_ADDR_42": 42,
      "JUMP_ADDR_43": 43,
      "JUMP_ADDR_44": 44,
      "JUMP_ADDR_45": 45,
      "JUMP_ADDR_46": 46,
      "JUMP_ADDR_47": 47,
      "JUMP_ADDR_48": 48,
      "JUMP_ADDR_49": 49,
      "JUMP_ADDR_50": 50,
      "JUMP_ADDR_51": 51,
      "JUMP_ADDR_52": 52,
      "JUMP_ADDR_53": 53,
      "JUMP_ADDR_54": 54,
      "JUMP_ADDR_55": 55,
      "JUMP_ADDR_56": 56,
      "JUMP_ADDR_57": 57,
      "JUMP_ADDR_58": 58,
      "JUMP_ADDR_59": 59,
      "JUMP_ADDR_60": 60,
      "JUMP_ADDR_61": 61,
      "JUMP_ADDR_62": 62,
      "JUMP_ADDR_63": 63,
      "JUMP_ADDR_64": 64,
      "JUMP_ADDR_65": 65,
      "JUMP_ADDR_66": 66,
      "JUMP_ADDR_67": 67,
      "JUMP_ADDR_68": 68,
      "JUMP_ADDR_69": 69,
      "JUMP_ADDR_70": 70,
      "JUMP_ADDR_71": 71,
      "JUMP_ADDR_72": 72,
      "JUMP_ADDR_73": 73,
      "JUMP_ADDR_74": 74,
      "JUMP_ADDR_75": 75,
      "JUMP_ADDR_76": 76,
      "JUMP_ADDR_77": 77,
      "JUMP_ADDR_78": 78,
      "JUMP_ADDR_79": 79,
      "JUMP_ADDR_80": 80,
      "JUMP_ADDR_81": 81,
      "JUMP_ADDR_82": 82,
      "JUMP_ADDR_83": 83,
      "JUMP_ADDR_84": 84,
      "JUMP_ADDR_85": 85,
      "JUMP_ADDR_86": 86,
      "JUMP_ADDR_87": 87,
      "JUMP_ADDR_88": 88,
      "JUMP_ADDR_89": 89,
      "JUMP_ADDR_90": 90,
      "JUMP_ADDR_91": 91,
      "JUMP_ADDR_92": 92,
      "JUMP_ADDR_93": 93,
      "JUMP_ADDR_94": 94,
      "JUMP_ADDR_95": 95,
      "JUMP_ADDR_96": 96,
      "JUMP_ADDR_97": 97,
      "JUMP_ADDR_98": 98,
      "JUMP_ADDR_99": 99,
      "JUMP_ADDR_100": 100,
      "JUMP_ADDR_101": 101,
      "JUMP_ADDR_102": 102,
      "JUMP_ADDR_103": 103,
      "JUMP_ADDR_104": 104,
      "JUMP_ADDR_105": 105,
      "JUMP_ADDR_106": 106,
      "JUMP_ADDR_107": 107,
      "JUMP_ADDR_108": 108,
      "JUMP_ADDR_109": 109,
      "JUMP_ADDR_110": 110,
      "JUMP_ADDR_111": 111,
      "JUMP_ADDR_112": 112,
      "JUMP_ADDR_113": 113,
      "JUMP_ADDR_114": 114,
      "JUMP_ADDR_115": 115,
      "JUMP_ADDR_116": 116,
      "JUMP_ADDR_117": 117,
      "JUMP_ADDR_118": 118,
      "JUMP_ADDR_119": 119,
      "JUMP_ADDR_120": 120,
      "JUMP_ADDR_121": 121,
      "JUMP_ADDR_122": 122,
      "JUMP_ADDR_123": 123,
      "JUMP_ADDR_124": 124,
      "JUMP_ADDR_125": 125,
      "JUMP_ADDR_126": 126,
      "JUMP_ADDR_127": 127,
      "JUMP_ADDR_128": 128,
      "JUMP_ADDR_129": 129,
      "JUMP_ADDR_130": 130,
      "JUMP_ADDR_131": 131,
      "JUMP_ADDR_132": 132,
      "JUMP_ADDR_133": 133,
      "JUMP_ADDR_134": 134,
      "JUMP_ADDR_135": 135,
      "JUMP_ADDR_136": 136,
      "JUMP_ADDR_137": 137,
      "JUMP_ADDR_138": 138,
      "JUMP_ADDR_139": 139,
      "JUMP_ADDR_140": 140,
      "JUMP_ADDR_141": 141,
      "JUMP_ADDR_142": 142,
      "JUMP_ADDR_143": 143,
      "JUMP_ADDR_144": 144,
      "JUMP_ADDR_145": 145,
      "JUMP_ADDR_146": 146,
      "JUMP_ADDR_147": 147,
      "JUMP_ADDR_148": 148,
      "JUMP_ADDR_149": 149,
      "JUMP_ADDR_150": 150,
      "JUMP_ADDR_151": 151,
      "JUMP_ADDR_152": 152,
      "JUMP_ADDR_153": 153,
      "JUMP_ADDR_154": 154,
      "JUMP_ADDR_155": 155,
      "JUMP_ADDR_156": 156,
      "JUMP_ADDR_157": 157,
      "JUMP_ADDR_158": 158,
      "JUMP_ADDR_159": 159,
      "JUMP_ADDR_160": 160,
      "JUMP_ADDR_161": 161,
      "JUMP_ADDR_162": 162,
      "JUMP_ADDR_163": 163,
      "JUMP_ADDR_164": 164,
      "JUMP_ADDR_165": 165,
      "JUMP_ADDR_166": 166,
      "JUMP_ADDR_167": 167,
      "JUMP_ADDR_168": 168,
      "JUMP_ADDR_169": 169,
      "JUMP_ADDR_170": 170,
      "JUMP_ADDR_171": 171,
      "JUMP_ADDR_172": 172,
      "JUMP_ADDR_173": 173,
      "JUMP_ADDR_174": 174,
      "JUMP_ADDR_175": 175,
      "JUMP_ADDR_176": 176,
      "JUMP_ADDR_177": 177,
      "JUMP_ADDR_178": 178,
      "JUMP_ADDR_179": 179,
      "JUMP_ADDR_180": 180,
      "JUMP_ADDR_181": 181,
      "JUMP_ADDR_182": 182,
      "JUMP_ADDR_183": 183,
      "JUMP_ADDR_184": 184,
      "JUMP_ADDR_185": 185,
      "JUMP_ADDR_186": 186,
      "JUMP_ADDR_187": 187,
      "JUMP_ADDR_188": 188,
      "JUMP_ADDR_189": 189,
      "JUMP_ADDR_190": 190,
      "JUMP_ADDR_191": 191,
      "JUMP_ADDR_192": 192,
      "JUMP_ADDR_193": 193,
      "JUMP_ADDR_194": 194,
      "JUMP_ADDR_195": 195,
      "JUMP_ADDR_196": 196,
      "JUMP_ADDR_197": 197,
      "JUMP_ADDR_198": 198,
      "JUMP_ADDR_199": 199,
      "JUMP_ADDR_200": 200,
      "JUMP_ADDR_201": 201,
      "JUMP_ADDR_202": 202,
      "JUMP_ADDR_203": 203,
      "JUMP_ADDR_204": 204,
      "JUMP_ADDR_205": 205,
      "JUMP_ADDR_206": 206,
      "JUMP_ADDR_207": 207,
      "JUMP_ADDR_208": 208,
      "JUMP_ADDR_209": 209,
      "JUMP_ADDR_210": 210,
      "JUMP_ADDR_211": 211,
      "JUMP_ADDR_212": 212,
      "JUMP_ADDR_213": 213,
      "JUMP_ADDR_214": 214,
      "JUMP_ADDR_215": 215,
      "JUMP_ADDR_216": 216,
      "JUMP_ADDR_217": 217,
      "JUMP_ADDR_218": 218,
      "JUMP_ADDR_219": 219,
      "JUMP_ADDR_220": 220,
      "JUMP_ADDR_221": 221,
      "JUMP_ADDR_222": 222,
      "JUMP_ADDR_223": 223,
      "JUMP_ADDR_224": 224,
      "JUMP_ADDR_225": 225,
      "JUMP_ADDR_226": 226,
      "JUMP_ADDR_227": 227,
      "JUMP_ADDR_228": 228,
      "JUMP_ADDR_229": 229,
      "JUMP_ADDR_230": 230,
      "JUMP_ADDR_231": 231,
      "JUMP_ADDR_232": 232,
      "JUMP_ADDR_233": 233,
      "JUMP_ADDR_234": 234,
      "JUMP_ADDR_235": 235,
      "JUMP_ADDR_236": 236,
      "JUMP_ADDR_237": 237,
      "JUMP_ADDR_238": 238,
      "JUMP_ADDR_239": 239,
      "JUMP_ADDR_240": 240,
      "JUMP_ADDR_241": 241,
      "JUMP_ADDR_242": 242,
      "JUMP_ADDR_243": 243,
      "JUMP_ADDR_244": 244,
      "JUMP_ADDR_245": 245,
      "JUMP_ADDR_246": 246,
      "JUMP_ADDR_247": 247,
      "JUMP_ADDR_248": 248,
      "JUMP_ADDR_249": 249,
      "JUMP_ADDR_250": 250,
      "JUMP_ADDR_251": 251,
      "JUMP_ADDR_252": 252,
      "JUMP_ADDR_253": 253,
      "JUMP_ADDR_254": 254,
      "JUMP_ADDR_255": 255,
      "JUMP_ADDR_256": 256,
      "JUMP_ADDR_257": 257,
      "JUMP_ADDR_258": 258,
      "JUMP_ADDR_259": 259,
      "JUMP_ADDR_260": 260,
      "JUMP_ADDR_261": 261,
      "JUMP_ADDR_262": 262,
      "JUMP_ADDR_263": 263,
      "JUMP_ADDR_264": 264,
      "JUMP_ADDR_265": 265,
      "JUMP_ADDR_266": 266,
      "JUMP_ADDR_267": 267,
      "JUMP_ADDR_268": 268,
      "JUMP_ADDR_269": 269,
      "JUMP_ADDR_270": 270,
      "JUMP_ADDR_271": 271,
      "JUMP_ADDR_272": 272,
      "JUMP_ADDR_273": 273,
      "JUMP_ADDR_274": 274,
      "JUMP_ADDR_275": 275,
      "JUMP_ADDR_276": 276,
      "JUMP_ADDR_277": 277,
      "JUMP_ADDR_278": 278,
      "JUMP_ADDR_279": 279,
      "JUMP_ADDR_280": 280,
      "JUMP_ADDR_281": 281,
      "JUMP_ADDR_282": 282,
      "JUMP_ADDR_283": 283,
      "JUMP_ADDR_284": 284,
      "JUMP_ADDR_285": 285,
      "JUMP_ADDR_286": 286,
      "JUMP_ADDR_287": 287,
      "JUMP_ADDR_288": 288,
      "JUMP_ADDR_289": 289,
      "JUMP_ADDR_290": 290,
      "JUMP_ADDR_291": 291,
      "JUMP_ADDR_292": 292,
      "JUMP_ADDR_293": 293,
      "JUMP_ADDR_294": 294,
      "JUMP_ADDR_295": 295,
      "JUMP_ADDR_296": 296,
      "JUMP_ADDR_297": 297,
      "JUMP_ADDR_298": 298,
      "JUMP_ADDR_299": 299,
      "JUMP_ADDR_300": 300,
      "JUMP_ADDR_301": 301,
      "JUMP_ADDR_302": 302,
      "JUMP_ADDR_303": 303,
      "JUMP_ADDR_304": 304,
      "JUMP_ADDR_305": 305,
      "JUMP_ADDR_306": 306,
      "JUMP_ADDR_307": 307,
      "JUMP_ADDR_308": 308,
      "JUMP_ADDR_309": 309,
      "JUMP_ADDR_310": 310,
      "JUMP_ADDR_311": 311,
      "JUMP_ADDR_312": 312,
      "JUMP_ADDR_313": 313,
      "JUMP_ADDR_314": 314,
      "JUMP_ADDR_315": 315,
      "JUMP_ADDR_316": 316,
      "JUMP_ADDR_317": 317,
      "JUMP_ADDR_318": 318,
      "JUMP_ADDR_319": 319,
      "JUMP_ADDR_320": 320,
      "JUMP_ADDR_321": 321,
      "JUMP_ADDR_322": 322,
      "JUMP_ADDR_323": 323,
      "JUMP_ADDR_324": 324,
      "JUMP_ADDR_325": 325,
      "JUMP_ADDR_326": 326,
      "JUMP_ADDR_327": 327,
      "JUMP_ADDR_328": 328,
      "JUMP_ADDR_329": 329,
      "JUMP_ADDR_330": 330,
      "JUMP_ADDR_331": 331,
      "JUMP_ADDR_332": 332,
      "JUMP_ADDR_333": 333,
      "JUMP_ADDR_334": 334,
      "JUMP_ADDR_335": 335,
      "JUMP_ADDR_336": 336,
      "JUMP_ADDR_337": 337,
      "JUMP_ADDR_338": 338,
      "JUMP_ADDR_339": 339,
      "JUMP_ADDR_340": 340,
      "JUMP_ADDR_341": 341,
      "JUMP_ADDR_342": 342,
      "JUMP_ADDR_343": 343,
      "JUMP_ADDR_344": 344,
      "JUMP_ADDR_345": 345,
      "JUMP_ADDR_346": 346,
      "JUMP_ADDR_347": 347,
      "JUMP_ADDR_348": 348,
      "JUMP_ADDR_349": 349,
      "JUMP_ADDR_350": 350,
      "JUMP_ADDR_351": 351,
      "JUMP_ADDR_352": 352,
      "JUMP_ADDR_353": 353,
      "JUMP_ADDR_354": 354,
      "JUMP_ADDR_355": 355,
      "JUMP_ADDR_356": 356,
      "JUMP_ADDR_357": 357,
      "JUMP_ADDR_358": 358,
      "JUMP_ADDR_359": 359,
      "JUMP_ADDR_360": 360,
      "JUMP_ADDR_361": 361,
      "JUMP_ADDR_362": 362,
      "JUMP_ADDR_363": 363,
      "JUMP_ADDR_364": 364,
      "JUMP_ADDR_365": 365,
      "JUMP_ADDR_366": 366,
      "JUMP_ADDR_367": 367,
      "JUMP_ADDR_368": 368,
      "JUMP_ADDR_369": 369,
      "JUMP_ADDR_370": 370,
      "JUMP_ADDR_371": 371,
      "JUMP_ADDR_372": 372,
      "JUMP_ADDR_373": 373,
      "JUMP_ADDR_374": 374,
      "JUMP_ADDR_375": 375,
      "JUMP_ADDR_376": 376,
      "JUMP_ADDR_377": 377,
      "JUMP_ADDR_378": 378,
      "JUMP_ADDR_379": 379,
      "JUMP_ADDR_380": 380,
      "JUMP_ADDR_381": 381,
      "JUMP_ADDR_382": 382,
      "JUMP_ADDR_383": 383,
      "JUMP_ADDR_384": 384,
      "JUMP_ADDR_385": 385,
      "JUMP_ADDR_386": 386,
      "JUMP_ADDR_387": 387,
      "JUMP_ADDR_388": 388,
      "JUMP_ADDR_389": 389,
      "JUMP_ADDR_390": 390,
      "JUMP_ADDR_391": 391,
      "JUMP_ADDR_392": 392,
      "JUMP_ADDR_393": 393,
      "JUMP_ADDR_394": 394,
      "JUMP_ADDR_395": 395,
      "JUMP_ADDR_396": 396,
      "JUMP_ADDR_397": 397,
      "JUMP_ADDR_398": 398,
      "JUMP_ADDR_399": 399,
      "JUMP_ADDR_400": 400,
      "JUMP_ADDR_401": 401,
      "JUMP_ADDR_402": 402,
      "JUMP_ADDR_403": 403,
      "JUMP_ADDR_404": 404,
      "JUMP_ADDR_405": 405,
      "JUMP_ADDR_406": 406,
      "JUMP_ADDR_407": 407,
      "JUMP_ADDR_408": 408,
      "JUMP_ADDR_409": 409,
      "JUMP_ADDR_410": 410,
      "JUMP_ADDR_411": 411,
      "JUMP_ADDR_412": 412,
      "JUMP_ADDR_413": 413,
      "JUMP_ADDR_414": 414,
      "JUMP_ADDR_415": 415,
      "JUMP_ADDR_416": 416,
      "JUMP_ADDR_417": 417,
      "JUMP_ADDR_418": 418,
      "JUMP_ADDR_419": 419,
      "JUMP_ADDR_420": 420,
      "JUMP_ADDR_421": 421,
      "JUMP_ADDR_422": 422,
      "JUMP_ADDR_423": 423,
      "JUMP_ADDR_424": 424,
      "JUMP_ADDR_425": 425,
      "JUMP_ADDR_426": 426,
      "JUMP_ADDR_427": 427,
      "JUMP_ADDR_428": 428,
      "JUMP_ADDR_429": 429,
      "JUMP_ADDR_430": 430,
      "JUMP_ADDR_431": 431,
      "JUMP_ADDR_432": 432,
      "JUMP_ADDR_433": 433,
      "JUMP_ADDR_434": 434,
      "JUMP_ADDR_435": 435,
      "JUMP_ADDR_436": 436,
      "JUMP_ADDR_437": 437,
      "JUMP_ADDR_438": 438,
      "JUMP_ADDR_439": 439,
      "JUMP_ADDR_440": 440,
      "JUMP_ADDR_441": 441,
      "JUMP_ADDR_442": 442,
      "JUMP_ADDR_443": 443,
      "JUMP_ADDR_444": 444,
      "JUMP_ADDR_445": 445,
      "JUMP_ADDR_446": 446,
      "JUMP_ADDR_447": 447,
      "JUMP_ADDR_448": 448,
      "JUMP_ADDR_449": 449,
      "JUMP_ADDR_450": 450,
      "JUMP_ADDR_451": 451,
      "JUMP_ADDR_452": 452,
      "JUMP_ADDR_453": 453,
      "JUMP_ADDR_454": 454,
      "JUMP_ADDR_455": 455,
      "JUMP_ADDR_456": 456,
      "JUMP_ADDR_457": 457,
      "JUMP_ADDR_458": 458,
      "JUMP_ADDR_459": 459,
      "JUMP_ADDR_460": 460,
      "JUMP_ADDR_461": 461,
      "JUMP_ADDR_462": 462,
      "JUMP_ADDR_463": 463,
      "JUMP_ADDR_464": 464,
      "JUMP_ADDR_465": 465,
      "JUMP_ADDR_466": 466,
      "JUMP_ADDR_467": 467,
      "JUMP_ADDR_468": 468,
      "JUMP_ADDR_469": 469,
      "JUMP_ADDR_470": 470,
      "JUMP_ADDR_471": 471,
      "JUMP_ADDR_472": 472,
      "JUMP_ADDR_473": 473,
      "JUMP_ADDR_474": 474,
      "JUMP_ADDR_475": 475,
      "JUMP_ADDR_476": 476,
      "JUMP_ADDR_477": 477,
      "JUMP_ADDR_478": 478,
      "JUMP_ADDR_479": 479,
      "JUMP_ADDR_480": 480,
      "JUMP_ADDR_481": 481,
      "JUMP_ADDR_482": 482,
      "JUMP_ADDR_483": 483,
      "JUMP_ADDR_484": 484,
      "JUMP_ADDR_485": 485,
      "JUMP_ADDR_486": 486,
      "JUMP_ADDR_487": 487,
      "JUMP_ADDR_488": 488,
      "JUMP_ADDR_489": 489,
      "JUMP_ADDR_490": 490,
      "JUMP_ADDR_491": 491,
      "JUMP_ADDR_492": 492,
      "JUMP_ADDR_493": 493,
      "JUMP_ADDR_494": 494,
      "JUMP_ADDR_495": 495,
      "JUMP_ADDR_496": 496,
      "JUMP_ADDR_497": 497,
      "JUMP_ADDR_498": 498,
      "JUMP_ADDR_499": 499,
      "JUMP_ADDR_500": 500,
      "JUMP_ADDR_501": 501,
      "JUMP_ADDR_502": 502,
      "JUMP_ADDR_503": 503,
      "JUMP_ADDR_504": 504,
      "JUMP_ADDR_505": 505,
      "JUMP_ADDR_506": 506,
      "JUMP_ADDR_507": 507,
      "JUMP_ADDR_508": 508,
      "JUMP_ADDR_509": 509,
      "JUMP_ADDR_510": 510,
      "JUMP_ADDR_511": 511,
      "v13.b[0x1]": 512,
      "v3.d[0x0]": 513,
      "vbroadcastss": 514,
      "ldur": 515,
      "xmm6{k6}": 516,
      "ft10": 517,
      "ymm15{k7}": 518,
      "v0.b[0x0]": 519,
      "zmm5": 520,
      "rsqrtps": 521,
      "#0x2^30": 522,
      "fsubr": 523,
      "z14.h": 524,
      "v9.d[0x0]": 525,
      "cntd": 526,
      "popad": 527,
      "fcvt.s.wu": 528,
      "zmm17": 529,
      "vfmaddsub132ps": 530,
      "pmovzxdq": 531,
      "divuw": 532,
      "vpavgb": 533,
      "xmm12{k3}{z}": 534,
      "#16": 535,
      "zmm10{k4}": 536,
      "vpmaxuq": 537,
      "z2.h": 538,
      "fcvt": 539,
      "d16": 540,
      "saddl2": 541,
      "subhn2": 542,
      "vfnmadd231ss": 543,
      "xmm16{k7}": 544,
      "outsd": 545,
      "stosd": 546,
      "sp": 547,
      "ymm2{k1}{z}": 548,
      "v4.h[0x0]": 549,
      "zmm12{k6}": 550,
      "st1b": 551,
      "v17.b": 552,
      "h5": 553,
      "v21.8h": 554,
      "r8b": 555,
      "w19": 556,
      "z17.s[0x0]": 557,
      "k6": 558,
      "ldclr": 559,
      "z7.h[0x1]": 560,
      "minsd": 561,
      "uqsub": 562,
      "csinv": 563,
      "v29.b[0x6]": 564,
      "v30.b[0xa]": 565,
      "ymm31{k3}{z}": 566,
      "ymm15{k5}{z}": 567,
      "v30.b[0x5]": 568,
      "scasd.repe": 569,
      "vpandnq": 570,
      "p1.b": 571,
      "ymm6{k5}{z}": 572,
      "z28.d[0x0]": 573,
      "pclmulhqlqdq": 574,
      "vpclmulhqlqdq": 575,
      "vpsravd": 576,
      "shl": 577,
      "zmm8{k2}{z}": 578,
      "zmm11{k3}{z}": 579,
      "vpmovsxbw": 580,
      "jge": 581,
      "ymm25": 582,
      "r14d": 583,
      "b29": 584,
      "andn": 585,
      "z8": 586,
      "vpmovqd": 587,
      "amoswap.w.rl": 588,
      "0x2^33": 589,
      "v17.s[0x2]": 590,
      "xmm3{k6}": 591,
      "v1.b[0x4]": 592,
      "ymm17{k2}": 593,
      "z3.h": 594,
      "movmskpd": 595,
      "vgf2p8affineqb": 596,
      "xmm23{k6}{z}": 597,
      "zmm15{k3}": 598,
      "v18.b[0x6]": 599,
      "rori": 600,
      "zmm11{k2}{z}": 601,
      "vfnmsub132sd": 602,
      "xrstor": 603,
      "#0x2^19": 604,
      "xmmword_ptr": 605,
      "incd": 606,
      "zmm16{k5}": 607,
      "#0x2^23": 608,
      "p11.h": 609,
      "vcmpunordps": 610,
      "ld4r": 611,
      "v16.4s": 612,
      "ymm18{k5}": 613,
      "stur": 614,
      "vpminsd": 615,
      "zmm1{k6}{z}": 616,
      "vpcmpnleuw": 617,
      "fmul.s": 618,
      "p1/m": 619,
      "v20.s[0x2]": 620,
      "movbe": 621,
      "z18.s[0x0]": 622,
      "ld2r": 623,
      "vpshldd": 624,
      "ymm2{k6}": 625,
      "vwaddu.vx": 626,
      "v27.b[0x2]": 627,
      "zmm26": 628,
      "q7": 629,
      "sqdmulh": 630,
      "ymm20{k3}{z}": 631,
      "v21.s[0x1]": 632,
      "stg": 633,
      "xmm20{k7}": 634,
      "zmm5{k7}": 635,
      "vphaddsw": 636,
      "zmm2": 637,
      "z0.b": 638,
      "xmm22{k7}{z}": 639,
      "r12b": 640,
      "mulh": 641,
      "v29.b[0xb]": 642,
      "z28": 643,
      "v27.b[0xf]": 644,
      "s10": 645,
      "v6.1d": 646,
      "s18": 647,
      "sha256h": 648,
      "rsp": 649,
      "ngc": 650,
      "v22.h[0x3]": 651,
      "ymm17{k5}": 652,
      "revh": 653,
      "frintm": 654,
      "zmm20{k5}{z}": 655,
      "vucomiss": 656,
      "fmaxnmp": 657,
      "smlal": 658,
      "ldmxcsr": 659,
      "ymm11{k2}{z}": 660,
      "v28.h[0x0]": 661,
      "jg": 662,
      "v31.s[0x0]": 663,
      "swpa": 664,
      "v2.h[0x3]": 665,
      "q2": 666,
      "vpsignd": 667,
      "ror": 668,
      "zmm18{k7}{z}": 669,
      "v31.s[0x1]": 670,
      "jmp": 671,
      "v3.h": 672,
      "p13.d": 673,
      "zmm2{k1}": 674,
      "fcmp": 675,
      "z17.b": 676,
      "zmm24{k5}": 677,
      "iretd": 678,
      "xtn": 679,
      "ymm7{k1}{z}": 680,
      "sqshrn2": 681,
      "v16.b[0x0]": 682,
      "vpunpckhqdq": 683,
      "v29.b[0xf]": 684,
      "popfq": 685,
      "s8": 686,
      "xmm1{k4}{z}": 687,
      "z9.d": 688,
      "zmm27{k5}{z}": 689,
      "zmm3{k5}{z}": 690,
      "zmm14{k7}{z}": 691,
      "pcmpeqd": 692,
      "sm3tt1a": 693,
      "vcvtss2sd": 694,
      "v16.b[0x4]": 695,
      "sha512su1": 696,
      "vpmovsxwq": 697,
      "vsra.vi": 698,
      "x0!": 699,
      "cmovbe": 700,
      "ymm11{k3}": 701,
      "(": 702,
      "rshrn2": 703,
      "zmm4": 704,
      "uqdecd": 705,
      "v1.s[0x1]": 706,
      "v4.h": 707,
      "byte_ptr": 708,
      "#-0x2^23": 709,
      "z2.s[0x2]": 710,
      "ft0": 711,
      "ymm0{k1}{z}": 712,
      "xmm22{k6}{z}": 713,
      "vcmpordpd": 714,
      "xmm2{k1}": 715,
      "v8.d[0x0]": 716,
      "fcmovbe": 717,
      "v27.b[0xb]": 718,
      "v20.1q": 719,
      "v0.h[0x2]": 720,
      "#0x2^21": 721,
      "vcmpnlesd": 722,
      "vrndscaleps": 723,
      "tp": 724,
      "xcryptcbc.rep": 725,
      "JUMP_ADDR_EXCEEDED": 726,
      "xpaclri": 727,
      "bfm": 728,
      "#1": 729,
      "p9/m": 730,
      "xchg": 731,
      "z22.b": 732,
      "v5.b[0x3]": 733,
      "zmm2{k4}{z}": 734,
      "rbit": 735,
      "cmhi": 736,
      "xmm5{k5}": 737,
      "ushll2": 738,
      "z28.s[0x0]": 739,
      "v6.d": 740,
      "xmm12{k1}": 741,
      "cwde": 742,
      "faddv": 743,
      "ymm1{k5}": 744,
      "xmm3{k2}{z}": 745,
      "fadd.s": 746,
      "vpopcntd": 747,
      "v26.s[0x1]": 748,
      "st1": 749,
      "fabs": 750,
      "vpermt2ps": 751,
      "paddusb": 752,
      "vunpckhps": 753,
      "x0": 754,
      "kmovw": 755,
      "fmsb": 756,
      "cdqe": 757,
      "zmm7{k2}{z}": 758,
      "fnmadd.d": 759,
      "z23.b": 760,
      "b21": 761,
      "vpmadd52luq": 762,
      "ymm14{k7}{z}": 763,
      "xmm14{k3}": 764,
      "vpxorq": 765,
      "p1.h": 766,
      "dl": 767,
      "z17.s": 768,
      "smlal2": 769,
      "v2.b[0x7]": 770,
      "v31.h": 771,
      "#-0x2^b": 772,
      "zmm29{k1}{z}": 773,
      "vrndscalesd": 774,
      "vc": 775,
      "v14.s[0x2]": 776,
      "max": 777,
      "smin": 778,
      "xmm18{k2}": 779,
      "#0x2": 780,
      "#-0x2^e": 781,
      "vperm2f128": 782,
      "ldarh": 783,
      "v23.h[0x4]": 784,
      "not": 785,
      "vfmsub213pd": 786,
      "fccmp": 787,
      "p6.d": 788,
      "cmovo": 789,
      "zmm14{k3}{z}": 790,
      "udot": 791,
      "vpandd": 792,
      "xmm30{k3}{z}": 793,
      "r10d": 794,
      "ymm20{k1}": 795,
      "amoadd.w.aq": 796,
      "adds": 797,
      "-0x2^35": 798,
      "v2.b[0xd]": 799,
      "v25": 800,
      "vporq": 801,
      "h31": 802,
      "p5/m": 803,
      "#0x2^5": 804,
      "fpsr": 805,
      "v22.s": 806,
      "v20.b[0x3]": 807,
      "xmm7{k1}{z}": 808,
      "zmm11{k4}": 809,
      "vmovdqa": 810,
      "ecx": 811,
      "z26.d": 812,
      "xadd.lock": 813,
      "xmm0{k3}{z}": 814,
      "xmm19{k2}": 815,
      "v0.b[0xe]": 816,
      "v26.b[0xc]": 817,
      "xbegin": 818,
      "v1.d": 819,
      "s24": 820,
      "p14.b": 821,
      "vpcmpleud": 822,
      "-0x2^25": 823,
      "ymm1{k1}": 824,
      "v24.h[0x1]": 825,
      "incb": 826,
      "z0.s": 827,
      "xmm13{k7}{z}": 828,
      "v27.d[1]": 829,
      "cmpxchg16b.lock": 830,
      "xmm19{k3}": 831,
      "andnpd": 832,
      "rdrand": 833,
      "addpd": 834,
      "xmm22{k3}": 835,
      "fsqrt.d": 836,
      "sc.w.rl": 837,
      "v10.s[0x3]": 838,
      "fucomip": 839,
      "ymm30{k6}{z}": 840,
      "kxorq": 841,
      "v16.h[0x2]": 842,
      "cnt": 843,
      "v20.b[0x5]": 844,
      "vdivps": 845,
      "roundsd": 846,
      "ymm1{k7}{z}": 847,
      "ls": 848,
      "v4.h[0x5]": 849,
      "s1": 850,
      "xmm24{k4}": 851,
      "movzx": 852,
      "ymm8{k4}{z}": 853,
      "x3": 854,
      "fmax.s": 855,
      "vcmplepd": 856,
      "#0x2^b": 857,
      "-0x2^7": 858,
      "v23.8h": 859,
      "endbr64": 860,
      "zmm4{k6}": 861,
      "ptr": 862,
      "v9.d": 863,
      "v6.h[0x2]": 864,
      "v25.h[0x6]": 865,
      "xmm11{k1}{z}": 866,
      "r11d": 867,
      "xmm9{k2}": 868,
      "v24.d": 869,
      "pstl1keep": 870,
      "vcvtusi2sd": 871,
      "zmm5{k5}{z}": 872,
      "v27.b[0xe]": 873,
      "x15!": 874,
      "vpsllq": 875,
      "z24.s": 876,
      "zmm2{k3}": 877,
      "uqshl": 878,
      "fsin": 879,
      "knotb": 880,
      "ymm3{k6}{z}": 881,
      "zmm3": 882,
      "zmm15{k2}": 883,
      "s9": 884,
      "korw": 885,
      "smull2": 886,
      "zmm20{k3}": 887,
      "#-0x2^11": 888,
      "zmm24{k7}": 889,
      "zmm6{k3}{z}": 890,
      "#-0x2": 891,
      "fnmul": 892,
      "zmm9{k3}{z}": 893,
      "#0x2^3c": 894,
      "c.addw": 895,
      "kshiftld": 896,
      "and.lock": 897,
      "h13": 898,
      "v20.b": 899,
      "zmm7{k4}": 900,
      "v5.b[0x6]": 901,
      "movhps": 902,
      "pmaxsw": 903,
      "kandnq": 904,
      "zmm29{k4}": 905,
      "ucomisd": 906,
      "xmm14{k3}{z}": 907,
      "bcax": 908,
      "v28.8b": 909,
      "usra": 910,
      "ymm15{k3}": 911,
      "s16": 912,
      "vpermi2pd": 913,
      "clmul": 914,
      "zmm21": 915,
      "v2.b": 916,
      "ymm8{k2}{z}": 917,
      "z4.s[0x1]": 918,
      "v8.b": 919,
      "fs11": 920,
      "v13.1d": 921,
      "autiasp": 922,
      "frinta": 923,
      "v12.h[0x3]": 924,
      "-0x2^1a": 925,
      "ymm18{k6}": 926,
      "z11.h": 927,
      "ldaddal": 928,
      "vsubps": 929,
      "v1.b[0xf]": 930,
      "setc": 931,
      "st2b": 932,
      "vpsrlq": 933,
      "v14.s[0x3]": 934,
      "v25.h[0x0]": 935,
      "fle.s": 936,
      "v2.h[0x2]": 937,
      "faddp": 938,
      "#-0x2^1e": 939,
      "v6.h[0x4]": 940,
      "vpalignr": 941,
      "v10.b": 942,
      "ymm19{k7}": 943,
      "zmm22{k3}{z}": 944,
      "v20.s": 945,
      "ymm5{k1}": 946,
      "zmm4{k3}": 947,
      "zmm4{k5}{z}": 948,
      "ldrsb": 949,
      "cinv": 950,
      "zmm8{k1}{z}": 951,
      "uadalp": 952,
      "fmadd.s": 953,
      "setnc": 954,
      "zmm5{k2}{z}": 955,
      "v22.8h": 956,
      "vpunpckhdq": 957,
      "v8.1q": 958,
      "z22.d": 959,
      "xmm24{k3}": 960,
      "cmpxchg": 961,
      "fmin.s": 962,
      "adcs": 963,
      "v14.b[0x2]": 964,
      "d29": 965,
      "wzr": 966,
      "v3.h[0x1]": 967,
      "dech": 968,
      "v24.b[0x5]": 969,
      "vpcompressd": 970,
      "ssubw": 971,
      "zmm2{k2}{z}": 972,
      "amoswap.d.aqrl": 973,
      "ymm14{k5}{z}": 974,
      "fsw": 975,
      "ld4w": 976,
      "fs8": 977,
      "sha512su0": 978,
      "v14.d": 979,
      "ymm28{k1}{z}": 980,
      "zmm7{k1}{z}": 981,
      "v3.b[0xd]": 982,
      "psadbw": 983,
      "ymm18{k5}{z}": 984,
      "vcvttps2uqq": 985,
      "sqrdmulh": 986,
      "v26.d[1]": 987,
      "vgatherdps": 988,
      "vpsllvd": 989,
      "x21": 990,
      "fsqrt": 991,
      "-0x2^0": 992,
      "movlpd": 993,
      "fa3": 994,
      "z0.q[0x0]": 995,
      "vmovq": 996,
      "zmm4{k5}": 997,
      "vfmadd231sd": 998,
      "vwmacc.vx": 999,
      "smax": 1000,
      "v14.1q": 1001,
      "z22.s[0x0]": 1002,
      "srlw": 1003,
      "vpcmpnleq": 1004,
      "v14.8b": 1005,
      "zmm17{k6}{z}": 1006,
      "v7.h[0x5]": 1007,
      "zmm18{k4}{z}": 1008,
      "ymm18{k3}": 1009,
      "v23.b[0x4]": 1010,
      "v2.h[0x4]": 1011,
      "pushfq": 1012,
      "s29": 1013,
      "z20.s": 1014,
      "vucomisd": 1015,
      "v1.h[0x7]": 1016,
      "cli": 1017,
      "h1": 1018,
      "vpcmpnltud": 1019,
      "v20.b[0x6]": 1020,
      "#-0x2^1d": 1021,
      "z18.d[0x0]": 1022,
      "z2.s[0x0]": 1023,
      "xmm13{k2}": 1024,
      "zmm3{k4}{z}": 1025,
      "sm3tt1b": 1026,
      "st6": 1027,
      "b2": 1028,
      "rbx": 1029,
      "vprord": 1030,
      "v19.d": 1031,
      "vcmpeqps": 1032,
      "vpblendmw": 1033,
      "-0x2^28": 1034,
      "z4.h": 1035,
      "cmpls": 1036,
      "tpidr_el0": 1037,
      "auipc": 1038,
      "zmm20{k4}": 1039,
      "vmovlhps": 1040,
      "pmovsxwq": 1041,
      "vsse32.v": 1042,
      "si": 1043,
      "v11.b[0x0]": 1044,
      "v20.16b": 1045,
      "v28.b[0xd]": 1046,
      "zip1": 1047,
      "b9": 1048,
      "xmm10{k3}": 1049,
      "fcmne": 1050,
      "ymm1{k2}{z}": 1051,
      "v6.b[0x4]": 1052,
      "z5.s[0x1]": 1053,
      "xmm13{k1}{z}": 1054,
      "jno": 1055,
      "0x2^6": 1056,
      "csneg": 1057,
      "v21.16b": 1058,
      "x29": 1059,
      "xar": 1060,
      "zmm9{k7}{z}": 1061,
      "zmm22{k7}{z}": 1062,
      "z24.s[0x0]": 1063,
      "p2.d": 1064,
      "fcomp": 1065,
      "#0x2^28": 1066,
      "p4.s": 1067,
      "w22": 1068,
      "v15.4s": 1069,
      "v16.d": 1070,
      "v25.b[0x2]": 1071,
      "v16.8b": 1072,
      "p3/z": 1073,
      "cvtps2pi": 1074,
      "xmm22{k2}": 1075,
      "v8": 1076,
      "v1.b[0x9]": 1077,
      "p15.s": 1078,
      "vpermilps": 1079,
      "p2/m": 1080,
      "jo": 1081,
      "sqsub": 1082,
      "v14.b": 1083,
      "orv": 1084,
      "v0.b[0xf]": 1085,
      "f2xm1": 1086,
      "0x2^25": 1087,
      "int": 1088,
      "xmm2{k7}": 1089,
      "gp": 1090,
      "v11.b[0x5]": 1091,
      "zmm22{k1}{z}": 1092,
      "x14": 1093,
      "vpmulld": 1094,
      "zmm31": 1095,
      "#0x2^31": 1096,
      "fsincos": 1097,
      "v1.h[0x3]": 1098,
      "ymm3{k3}{z}": 1099,
      "p3.b": 1100,
      "ymm18{k4}{z}": 1101,
      "pshufhw": 1102,
      "zmm28{k2}{z}": 1103,
      "ymm4": 1104,
      "pabsd": 1105,
      "v7.h": 1106,
      "c.jalr": 1107,
      "v15.d[0x0]": 1108,
      "ymm15{k1}": 1109,
      "ymm22{k2}{z}": 1110,
      "ld3w": 1111,
      "#0x2^a": 1112,
      "zmm18{k3}{z}": 1113,
      "fcsel": 1114,
      "z21.d": 1115,
      "v1.h[0x0]": 1116,
      "p8.d": 1117,
      "csrrsi": 1118,
      "r0": 1119,
      "ymm1{k3}{z}": 1120,
      "zmm4{k1}": 1121,
      "r8w": 1122,
      "vmovntps": 1123,
      "d28": 1124,
      "mulpd": 1125,
      "ymm5": 1126,
      "xmm10{k3}{z}": 1127,
      "vpmullq": 1128,
      "zmm6{k6}{z}": 1129,
      "v5.d[1]": 1130,
      "z21.s[0x0]": 1131,
      "vsub.vx": 1132,
      "umlsl": 1133,
      "zmm28{k6}": 1134,
      "zmm15{k7}": 1135,
      "xtn2": 1136,
      "vmovss": 1137,
      "fcomip": 1138,
      "fs7": 1139,
      "x27!": 1140,
      "sc.d.rl": 1141,
      "bsf": 1142,
      "smlsl": 1143,
      "zmm9": 1144,
      "v31.2s": 1145,
      "srshl": 1146,
      "v12.4h": 1147,
      "v21.h": 1148,
      "cld": 1149,
      "setnp": 1150,
      "kshiftrq": 1151,
      "vextractf64x2": 1152,
      "xmm10{k5}{z}": 1153,
      "vfmaddsub231ps": 1154,
      "v17.s": 1155,
      "0x2^3f": 1156,
      "0x2^1d": 1157,
      "t0": 1158,
      "q31": 1159,
      "stmxcsr": 1160,
      "#0x1.0p+0": 1161,
      "zmm16{k1}": 1162,
      "#-0x2^3a": 1163,
      "fadd": 1164,
      "xmm10{k4}{z}": 1165,
      "v17.h[0x0]": 1166,
      "v30.b[0x8]": 1167,
      "pinsrb": 1168,
      "xmm21": 1169,
      "fence": 1170,
      "v4.d[1]": 1171,
      "v0.h[0x3]": 1172,
      "z26.s": 1173,
      "xmm13{k1}": 1174,
      "uaddl2": 1175,
      "cx": 1176,
      "#-0x4": 1177,
      "pslld": 1178,
      "v16.1q": 1179,
      "ymm12{k1}{z}": 1180,
      "or": 1181,
      "ldclra": 1182,
      "flt.d": 1183,
      "zmm27{k1}{z}": 1184,
      "v11.b[0x1]": 1185,
      "k4": 1186,
      "xmm20{k3}{z}": 1187,
      "b28": 1188,
      "xori": 1189,
      "v3.s[0x3]": 1190,
      "vpsubsw": 1191,
      "sys": 1192,
      "v4.d[0x1]": 1193,
      "z13.s": 1194,
      "vpbroadcastb": 1195,
      "#-0x2^19": 1196,
      "zmm12{k7}{z}": 1197,
      "xmm17{k7}": 1198,
      "vhaddps": 1199,
      "dczid_el0": 1200,
      "zmm28{k1}": 1201,
      "p15.d": 1202,
      "vpxor": 1203,
      "z6.q": 1204,
      "zmm16": 1205,
      "fcvt.d.lu": 1206,
      "raddhn": 1207,
      "cmpunordss": 1208,
      "z31": 1209,
      "b12": 1210,
      "in": 1211,
      "vpmaxsw": 1212,
      "ld1rqw": 1213,
      "fcvt.d.wu": 1214,
      "ld4b": 1215,
      "pabsb": 1216,
      "cmpeqss": 1217,
      "b.ge": 1218,
      "pextrd": 1219,
      "zmm8{k5}": 1220,
      "z16.s": 1221,
      "vorps": 1222,
      "v28.2s": 1223,
      "sm3partw1": 1224,
      "sbcs": 1225,
      "vnclip.wi": 1226,
      "mm2": 1227,
      "test": 1228,
      "vpgatherqq": 1229,
      "ymm3{k3}": 1230,
      "fcmgt": 1231,
      "0x2^1": 1232,
      "v17.b[0x1]": 1233,
      "setpe": 1234,
      "c.srli": 1235,
      "0x2^3a": 1236,
      "xmm20{k3}": 1237,
      "fneg": 1238,
      "z15.b": 1239,
      "vaddsubpd": 1240,
      "v15.s[0x0]": 1241,
      "x10!": 1242,
      "v16.b[0x6]": 1243,
      "zmm20{k5}": 1244,
      "vpcmpltq": 1245,
      "v11.s[0x1]": 1246,
      "-0x2^b": 1247,
      "#0x2^10": 1248,
      "vextractf32x4": 1249,
      "vfnmadd213pd": 1250,
      "rup": 1251,
      "z4.d[0x1]": 1252,
      "dh": 1253,
      "fcvt.w.d": 1254,
      "vpackusdw": 1255,
      "z22.d[0x0]": 1256,
      "xmm4{k2}": 1257,
      "punpcklwd": 1258,
      "pldl1strm": 1259,
      "fdivr": 1260,
      "clz": 1261,
      "zmm13{k1}{z}": 1262,
      "csrs": 1263,
      "vxor.vi": 1264,
      "brk": 1265,
      "z6.s[0x0]": 1266,
      "]": 1267,
      "vwmulu.vv": 1268,
      "xmm9": 1269,
      "x28": 1270,
      "v3.b[0x6]": 1271,
      "xmm4": 1272,
      "zmm26{k1}": 1273,
      "ymm16{k3}": 1274,
      "v27.b[0xd]": 1275,
      "v11.h": 1276,
      "v2": 1277,
      "srai": 1278,
      "fcvt.wu.s": 1279,
      "ymm3{k4}": 1280,
      "UNK_JUMP_ADDR": 1281,
      "stc": 1282,
      "vpcmpltb": 1283,
      "v0.b[0xb]": 1284,
      "zmm9{k6}": 1285,
      "umlal": 1286,
      "5": 1287,
      "zmm31{k3}": 1288,
      "z19.d": 1289,
      "v18.1q": 1290,
      "v24.8h": 1291,
      "d8": 1292,
      "v29.1q": 1293,
      "vpmovsxdq": 1294,
      "fmadd": 1295,
      "ld1rd": 1296,
      "v5.d": 1297,
      "zmm13{k1}": 1298,
      "p2/z": 1299,
      "v31.b[0x6]": 1300,
      "z3.d[0x1]": 1301,
      "ymm17{k7}{z}": 1302,
      "uqdech": 1303,
      "bfcvt": 1304,
      "vscatterdps": 1305,
      "ymm20{k7}": 1306,
      "v23.b[0x2]": 1307,
      "v26.s[0x0]": 1308,
      "zmm28{k6}{z}": 1309,
      "udiv": 1310,
      "vpmaddubsw": 1311,
      "xmm9{k3}": 1312,
      "xmm0{k6}": 1313,
      "vptest": 1314,
      "remu": 1315,
      "madd": 1316,
      "p6": 1317,
      "z11.s": 1318,
      "v12.s": 1319,
      "setno": 1320,
      "csinc": 1321,
      "xmm6{k2}{z}": 1322,
      "vandnps": 1323,
      "zmm15{k1}{z}": 1324,
      "vpcmpltuw": 1325,
      "vpsubw": 1326,
      "vzext.vf4": 1327,
      "{": 1328,
      "v29.b[0x2]": 1329,
      "v2.b[0x4]": 1330,
      "v2.2d": 1331,
      "vpmovusdb": 1332,
      "zmm15{k7}{z}": 1333,
      "z26.h": 1334,
      "ymm30{k1}{z}": 1335,
      "trn2": 1336,
      "v14.d[0x0]": 1337,
      "lsr": 1338,
      "b.eq": 1339,
      "xmm14{k6}{z}": 1340,
      "v28.h[0x4]": 1341,
      "r13w": 1342,
      "v26.b[0x1]": 1343,
      "#0x2^3b": 1344,
      "insertps": 1345,
      "zmm21{k1}{z}": 1346,
      "amoadd.w": 1347,
      "zmm23{k3}{z}": 1348,
      "v15.s[0x3]": 1349,
      "ymm9{k7}{z}": 1350,
      "v22.s[0x0]": 1351,
      "min": 1352,
      "vaddsd": 1353,
      "vnclipu.wi": 1354,
      "xmm5{k4}": 1355,
      "-0x2^18": 1356,
      "#0x2^2d": 1357,
      "setns": 1358,
      "v25.b": 1359,
      "sha256rnds2": 1360,
      "eor3": 1361,
      "v20.4h": 1362,
      "v9.1q": 1363,
      "z8.h": 1364,
      "zmm1{k3}": 1365,
      "cvtpd2dq": 1366,
      "z30": 1367,
      "zmm19{k2}{z}": 1368,
      "#0x2^3f": 1369,
      "fcmovnu": 1370,
      "clflush": 1371,
      "sqrtss": 1372,
      "retaa": 1373,
      "0x2^10": 1374,
      "movq2dq": 1375,
      "sidt": 1376,
      "incsspq": 1377,
      "xmm7{k4}{z}": 1378,
      "v5": 1379,
      "#0x2^c": 1380,
      "z4.s[0x2]": 1381,
      "nands": 1382,
      "v31.h[0x1]": 1383,
      "p9.b": 1384,
      "andv": 1385,
      "casalb": 1386,
      "vfnmsub231ss": 1387,
      "ecall": 1388,
      "srli": 1389,
      "vpmulhuw": 1390,
      "xmm21{k3}{z}": 1391,
      "vandps": 1392,
      "vbroadcasti64x4": 1393,
      "zmm23{k2}": 1394,
      "#0x2^d": 1395,
      "ymm16{k4}{z}": 1396,
      "xmm3{k4}{z}": 1397,
      "c.ebreak": 1398,
      "v1.b[0x7]": 1399,
      "z7.d": 1400,
      "zmm6{k2}{z}": 1401,
      "z1.d[0x0]": 1402,
      "-0x2^5": 1403,
      "ft5": 1404,
      "z1.h": 1405,
      "fsflags": 1406,
      "w17": 1407,
      "zmm2{k7}": 1408,
      "pstl2keep": 1409,
      "v23.b[0x1]": 1410,
      "v3.h[0x0]": 1411,
      "xmm4{k5}": 1412,
      "lsrr": 1413,
      "0x2^28": 1414,
      "v24.b[0x7]": 1415,
      "-0x2^34": 1416,
      "v28.b[0xa]": 1417,
      "ymm5{k6}{z}": 1418,
      "v3.1q": 1419,
      "zmm29{k5}": 1420,
      "b.hi": 1421,
      "ymm6{k7}": 1422,
      "ymm0{k3}{z}": 1423,
      "xmm6{k7}{z}": 1424,
      "z2.d[0x0]": 1425,
      "lsl": 1426,
      "0x2^16": 1427,
      "v31.b[0x3]": 1428,
      "ld1rh": 1429,
      "ymm20{k2}": 1430,
      "vpslldq": 1431,
      "fprem1": 1432,
      "xmm14{k4}{z}": 1433,
      "cmpordss": 1434,
      "ymm10{k1}": 1435,
      "ymm7{k2}": 1436,
      "xmm14{k1}{z}": 1437,
      "fmin": 1438,
      "v21.b[0x3]": 1439,
      "casal": 1440,
      "zmm20{k7}{z}": 1441,
      "xmm8": 1442,
      "h18": 1443,
      "v11.h[0x1]": 1444,
      "v15.b[0x6]": 1445,
      "z5.d[0x0]": 1446,
      "fcvtau": 1447,
      "d15": 1448,
      "#0x1": 1449,
      "xmm14": 1450,
      "xmm3{k4}": 1451,
      "pmulld": 1452,
      "fldl2e": 1453,
      "fsgnj.s": 1454,
      "mulss": 1455,
      "amoswap.w": 1456,
      "z2.d[0x1]": 1457,
      "vpcmpeqq": 1458,
      "uxtw": 1459,
      "s22": 1460,
      "valignq": 1461,
      "v5.d[0x1]": 1462,
      "x22!": 1463,
      "amoswap.d.rl": 1464,
      "fdivp": 1465,
      "subpd": 1466,
      "0x2^18": 1467,
      "vinsertf32x8": 1468,
      "z18.d": 1469,
      "zmm5{k2}": 1470,
      "zmm30": 1471,
      "ymm2": 1472,
      "q29": 1473,
      "zmm23{k2}{z}": 1474,
      "vpcmpltuq": 1475,
      "xmm13{k4}": 1476,
      "v19.4h": 1477,
      "blt": 1478,
      "z11.d[0x0]": 1479,
      "r14w": 1480,
      "stosb.rep": 1481,
      "vsmul.vv": 1482,
      "xmm1{k2}{z}": 1483,
      "z3.s[0x2]": 1484,
      "p12/z": 1485,
      "fucom": 1486,
      "v27.h[0x0]": 1487,
      "sm3partw2": 1488,
      "xmm24{k6}": 1489,
      "v28.h[0x7]": 1490,
      "zmm23{k6}": 1491,
      "cmpsb": 1492,
      "h19": 1493,
      "s27": 1494,
      "uzp1": 1495,
      "fmul.d": 1496,
      "z0.s[0x0]": 1497,
      "vinsertps": 1498,
      "x24!": 1499,
      "x11!": 1500,
      "vnsrl.wi": 1501,
      "v13.d": 1502,
      "stz2g": 1503,
      "v12.s[0x0]": 1504,
      "vminss": 1505,
      "z6.s[0x3]": 1506,
      "ymm6{k5}": 1507,
      "v23.b[0x5]": 1508,
      "b.mi": 1509,
      "#-0x2^3f": 1510,
      "z1.s": 1511,
      "v17.h[0x2]": 1512,
      "ymm29": 1513,
      "smstart": 1514,
      "xmm11{k6}{z}": 1515,
      "ymm14{k3}": 1516,
      "v21.b[0x5]": 1517,
      "v17.b[0x4]": 1518,
      "v8.2d": 1519,
      "v28.s[0x1]": 1520,
      "x2": 1521,
      "msub": 1522,
      "v22.b[0x5]": 1523,
      "v20.h[0x6]": 1524,
      "z23": 1525,
      "vpcmpgtb": 1526,
      "vpandnd": 1527,
      "h29": 1528,
      "0x2^19": 1529,
      "v12.2s": 1530,
      "mls": 1531,
      "ymm15{k5}": 1532,
      "zmm16{k7}": 1533,
      "#-0x2^29": 1534,
      "vmovmskps": 1535,
      "vprolq": 1536,
      "vpand": 1537,
      "b19": 1538,
      "xmm6{k4}": 1539,
      "z23.s": 1540,
      "zmm17{k1}": 1541,
      "uaddl": 1542,
      "decd": 1543,
      "v28.h[0x5]": 1544,
      "ld1rqd": 1545,
      "v23.4h": 1546,
      "zmm24{k1}{z}": 1547,
      "16": 1548,
      "zmm12{k2}{z}": 1549,
      "vpabsw": 1550,
      "q11": 1551,
      "sb": 1552,
      "vwmaccu.vv": 1553,
      "v3.d[0x1]": 1554,
      "v4.8h": 1555,
      "v24.h[0x0]": 1556,
      "ymm5{k4}": 1557,
      "vwsub.vv": 1558,
      "ymm4{k2}{z}": 1559,
      "v0.h[0x6]": 1560,
      "xmm2{k6}": 1561,
      "ymm16{k2}{z}": 1562,
      "ymm29{k7}{z}": 1563,
      "z25.s": 1564,
      "vpbroadcastmw2d": 1565,
      "subsd": 1566,
      "v1.b[0x0]": 1567,
      "csrsi": 1568,
      "v23.1q": 1569,
      "ymm23": 1570,
      "v0.d": 1571,
      "v20.d[0x0]": 1572,
      "zmm23{k3}": 1573,
      "vinserti32x8": 1574,
      "z25": 1575,
      "fcvtn": 1576,
      "ymm22{k3}": 1577,
      "v2.s[0x3]": 1578,
      "b31": 1579,
      "v6.d[1]": 1580,
      "z5.s[0x2]": 1581,
      "vpblendmq": 1582,
      "unpckhps": 1583,
      "shufps": 1584,
      "xmm7{k1}": 1585,
      "v3.8b": 1586,
      "xmm19{k7}": 1587,
      "v23.h": 1588,
      "swpalb": 1589,
      "ft2": 1590,
      "v26.b[0x9]": 1591,
      "tst": 1592,
      "p1": 1593,
      "ymm21{k6}{z}": 1594,
      "psubd": 1595,
      "v10.h": 1596,
      "#0x2^1e": 1597,
      "v21.d[0x0]": 1598,
      "cmovg": 1599,
      "kunpckbw": 1600,
      "vstmxcsr": 1601,
      "z6.h": 1602,
      "vmovdqu": 1603,
      "x28!": 1604,
      "vpmovm2q": 1605,
      "swp": 1606,
      "vpcmpleub": 1607,
      "sqrshrun": 1608,
      "v14.h[0x3]": 1609,
      "pmovmskb": 1610,
      "vwmul.vx": 1611,
      "v22.b[0x2]": 1612,
      "vmaskmovps": 1613,
      "whilelt": 1614,
      "flt.s": 1615,
      "v13.d[0x1]": 1616,
      "v20.s[0x0]": 1617,
      "zmm13{k4}{z}": 1618,
      "z12.b": 1619,
      "p10.b": 1620,
      "xmm10{k2}": 1621,
      "vs": 1622,
      "v9.s[0x1]": 1623,
      "v1.8h": 1624,
      "ymm21{k4}{z}": 1625,
      "vpcmpnleb": 1626,
      "v1.b[0x6]": 1627,
      "0x2^2c": 1628,
      "v4.4s": 1629,
      "sltiu": 1630,
      "zmm18{k1}": 1631,
      "div": 1632,
      "#0x2^25": 1633,
      "sha1c": 1634,
      "v1.h[0x2]": 1635,
      "saddw": 1636,
      "h14": 1637,
      "fs2": 1638,
      "vfnmadd132ps": 1639,
      "cmphs": 1640,
      "v27.1q": 1641,
      "ymm21{k2}{z}": 1642,
      "vpextrq": 1643,
      "v7.8b": 1644,
      "pslldq": 1645,
      "divps": 1646,
      "8": 1647,
      "xorps": 1648,
      "#-0xf": 1649,
      "ymm6{k1}{z}": 1650,
      "v14.h[0x0]": 1651,
      "vpshufhw": 1652,
      "xmm24{k2}{z}": 1653,
      "v25.h": 1654,
      "v23.b[0xa]": 1655,
      "xsavec": 1656,
      "t3": 1657,
      "fmad": 1658,
      "a3": 1659,
      "ymm10{k1}{z}": 1660,
      "v3.1d": 1661,
      "z2.s": 1662,
      "#-0x2^6": 1663,
      "zmm12{k4}": 1664,
      "cwd": 1665,
      "extr": 1666,
      "h12": 1667,
      "fmsub.d": 1668,
      "z11.s[0x0]": 1669,
      "v28.s[0x0]": 1670,
      "z5.s": 1671,
      "ld": 1672,
      "psubsb": 1673,
      "v26.h[0x7]": 1674,
      "popcnt": 1675,
      "h24": 1676,
      "v21.b[0x6]": 1677,
      "v7.b[0x2]": 1678,
      "p5.h": 1679,
      "ymm30{k7}": 1680,
      "fxrstor": 1681,
      "minpd": 1682,
      "0x2^40": 1683,
      "v22.b": 1684,
      "ldaddl": 1685,
      "#2": 1686,
      "z3.d": 1687,
      "4": 1688,
      "p10/z": 1689,
      "x6!": 1690,
      "v26.s[0x2]": 1691,
      "add": 1692,
      "p2.h": 1693,
      "v24.d[0x0]": 1694,
      "v4.b[0x2]": 1695,
      "ymm2{k4}{z}": 1696,
      "ymm23{k3}{z}": 1697,
      "ymm0": 1698,
      "lr.w": 1699,
      "ymm12{k7}": 1700,
      "b.cc": 1701,
      "movq": 1702,
      "ymm25{k6}{z}": 1703,
      "pfmin": 1704,
      "st5": 1705,
      "vpcmpltd": 1706,
      "2": 1707,
      "x5": 1708,
      "ymm25{k2}": 1709,
      "z4.d[0x0]": 1710,
      "v26.b[0x6]": 1711,
      "z27.b": 1712,
      "zmm18{k6}": 1713,
      "kxord": 1714,
      "ymm4{k5}": 1715,
      "kxorb": 1716,
      "zmm1{k2}": 1717,
      "asrr": 1718,
      "x21!": 1719,
      "w30": 1720,
      "v20.h[0x2]": 1721,
      "punpckhbw": 1722,
      "vcvttsd2usi": 1723,
      "r5": 1724,
      "0x2^26": 1725,
      "#0x2^2e": 1726,
      "p3": 1727,
      "p13/m": 1728,
      "fyl2x": 1729,
      "z27.d": 1730,
      "ptrues": 1731,
      "mulw": 1732,
      "v16.b[0x9]": 1733,
      "vptestnmq": 1734,
      "xmm1{k7}{z}": 1735,
      "ldeorl": 1736,
      "vgatherqpd": 1737,
      "sha1h": 1738,
      "jecxz": 1739,
      "all": 1740,
      "dup": 1741,
      "v7.s[0x2]": 1742,
      "ymm13{k3}{z}": 1743,
      "vptestnmb": 1744,
      "cpye": 1745,
      "#0x2^39": 1746,
      "v19.2s": 1747,
      "cqo": 1748,
      "#32": 1749,
      "loop": 1750,
      "v0.4h": 1751,
      "vblendmps": 1752,
      "kxnorw": 1753,
      "v3.b[0xc]": 1754,
      "p4.b": 1755,
      "v2.d[0x0]": 1756,
      "#-0x2^26": 1757,
      "fccmpe": 1758,
      "shrx": 1759,
      "zmm14{k3}": 1760,
      "vpshldw": 1761,
      "vxorpd": 1762,
      "v27.h[0x3]": 1763,
      "zmm13{k3}{z}": 1764,
      "v0.h[0x0]": 1765,
      "insb": 1766,
      "v2.4h": 1767,
      "zmm28{k3}": 1768,
      "ft7": 1769,
      "v11.h[0x3]": 1770,
      "ldadda": 1771,
      "xmm21{k7}{z}": 1772,
      "#0x2^6": 1773,
      "b.cs": 1774,
      "ymm12{k6}{z}": 1775,
      "v25.h[0x2]": 1776,
      "v7.b[0x6]": 1777,
      "v4.s[0x2]": 1778,
      "v22.s[0x2]": 1779,
      "xmm5{k6}": 1780,
      "divu": 1781,
      "r10b": 1782,
      "vcvtpd2ps": 1783,
      "#0x2^2a": 1784,
      "ymm31": 1785,
      "zmm7{k4}{z}": 1786,
      "vpcmpleb": 1787,
      "cntp": 1788,
      "movntps": 1789,
      "xmm1{k4}": 1790,
      "v22.d[0x0]": 1791,
      "v16.s": 1792,
      "#3": 1793,
      "vpcmpltud": 1794,
      "ymm1{k4}{z}": 1795,
      "vminps": 1796,
      "ymm7{k7}{z}": 1797,
      "b13": 1798,
      "p6/m": 1799,
      "z6.d": 1800,
      "sqrtps": 1801,
      "1": 1802,
      "v12.d": 1803,
      "ymm19{k4}{z}": 1804,
      "ymm7{k4}{z}": 1805,
      "cmovnz": 1806,
      "v0.t": 1807,
      "v21.h[0x0]": 1808,
      "#4": 1809,
      "vmaxss": 1810,
      "v30.4s": 1811,
      "zmm20{k1}{z}": 1812,
      "ldsetal": 1813,
      "v7.8h": 1814,
      "ymm12{k5}": 1815,
      "z19.q": 1816,
      "ymm2{k7}": 1817,
      "lui": 1818,
      "x16!": 1819,
      "c0xd": 1820,
      "vmul.vx": 1821,
      "vpshuflw": 1822,
      "zmm11{k6}{z}": 1823,
      "v10.b[0x0]": 1824,
      "zmm23{k7}{z}": 1825,
      "vmv.x.s": 1826,
      "-0x2^13": 1827,
      "cmpgt": 1828,
      "sraw": 1829,
      "v18.s[0x3]": 1830,
      "#0x2^11": 1831,
      "cvttsd2si": 1832,
      "w10": 1833,
      "zmm20{k2}": 1834,
      "v17": 1835,
      "word_ptr": 1836,
      "sgdt": 1837,
      "zmm17{k3}": 1838,
      "v1.s[0x2]": 1839,
      "zmm29{k2}{z}": 1840,
      "#0x1.0p-1": 1841,
      "sabdl": 1842,
      "q10": 1843,
      "minps": 1844,
      "#0x10": 1845,
      "v27.1d": 1846,
      "rev16": 1847,
      "stxrh": 1848,
      "zmm7{k5}{z}": 1849,
      "vptestnmw": 1850,
      "paddsw": 1851,
      "vrsub.vx": 1852,
      "vpaddb": 1853,
      "#-0x2^18": 1854,
      "-0x2^2b": 1855,
      "ymm5{k4}{z}": 1856,
      "vpslld": 1857,
      "smov": 1858,
      "z27.d[0x0]": 1859,
      "v10.d": 1860,
      "srliw": 1861,
      "v22.d": 1862,
      "ld1rqh": 1863,
      "-0x2^3b": 1864,
      "d20": 1865,
      "p15.b": 1866,
      "cmlt": 1867,
      "kshiftrw": 1868,
      "irg": 1869,
      "v1.s": 1870,
      "vmovhpd": 1871,
      "v26.b[0xa]": 1872,
      "#24": 1873,
      "xmm13{k4}{z}": 1874,
      "vpermps": 1875,
      "vsubpd": 1876,
      "#-0x1": 1877,
      "v7.s[0x0]": 1878,
      "#0x9": 1879,
      "z17.q[0x0]": 1880,
      "adrp": 1881,
      "zmm21{k5}": 1882,
      "z29.s[0x0]": 1883,
      "addpl": 1884,
      "vpmaxsq": 1885,
      "xmm12{k2}{z}": 1886,
      "v15.h[0x1]": 1887,
      "vcvtps2dq": 1888,
      "p4/z": 1889,
      "-0x2^3f": 1890,
      "ymm28{k7}": 1891,
      "-0x2^4": 1892,
      "kandnd": 1893,
      "vandpd": 1894,
      "q17": 1895,
      "vpermb": 1896,
      "vpord": 1897,
      "v28.h[0x1]": 1898,
      "zmm17{k6}": 1899,
      "vpmovqw": 1900,
      "h26": 1901,
      "out": 1902,
      "z4.s[0x3]": 1903,
      "fsubp": 1904,
      "movsw": 1905,
      "zmm15{k4}": 1906,
      "zmm0{k7}{z}": 1907,
      "z9.h": 1908,
      "s31": 1909,
      "s0": 1910,
      "vfmadd132ss": 1911,
      "ymm16{k3}{z}": 1912,
      "v26.8h": 1913,
      "ymm0{k2}": 1914,
      "v2.b[0xf]": 1915,
      "q19": 1916,
      "0x2^39": 1917,
      "fmadd.d": 1918,
      "vcvtudq2pd": 1919,
      "emms": 1920,
      "xmm13{k3}{z}": 1921,
      "z31.q": 1922,
      "ymm11{k2}": 1923,
      "v6.4h": 1924,
      "v6.h[0x1]": 1925,
      "-0x2^14": 1926,
      "v30.d[0x0]": 1927,
      "z7.q": 1928,
      "fprem": 1929,
      "#0x7": 1930,
      "ymm7{k6}": 1931,
      "p3.s": 1932,
      "dec.lock": 1933,
      "ldclrb": 1934,
      "c.slli": 1935,
      "v12.16b": 1936,
      "v11.h[0x2]": 1937,
      "kmovq": 1938,
      "ymm13{k1}": 1939,
      "st3w": 1940,
      "v6.b[0x7]": 1941,
      "vfmadd231ps": 1942,
      "v20.s[0x1]": 1943,
      "shrn2": 1944,
      "v29.b[0x9]": 1945,
      "vshufi32x4": 1946,
      "usubl": 1947,
      "zmm29{k6}": 1948,
      "btc": 1949,
      "v26.b[0x2]": 1950,
      "#1.0": 1951,
      "ymm12{k3}": 1952,
      "v22.d[0x1]": 1953,
      "vpcmpeqb": 1954,
      "v4.1d": 1955,
      "xmm21{k3}": 1956,
      "ffreep": 1957,
      "s23": 1958,
      "uxtl2": 1959,
      "v28.1q": 1960,
      "z21.b": 1961,
      "v14.4h": 1962,
      "stxr": 1963,
      "c.lw": 1964,
      "h15": 1965,
      "z3.d[0x0]": 1966,
      "d18": 1967,
      "v15.1q": 1968,
      "xmm29{k3}{z}": 1969,
      "cs": 1970,
      "xmm0{k4}": 1971,
      "edi": 1972,
      "ymm2{k3}": 1973,
      "z17.d": 1974,
      "h2": 1975,
      "saddlv": 1976,
      "x15": 1977,
      "p10.h": 1978,
      "v20.b[0x2]": 1979,
      "jeq": 1980,
      "v23.s[0x3]": 1981,
      "v28.b[0x5]": 1982,
      "z10.d[0x0]": 1983,
      "vpunpckhbw": 1984,
      "v21.2s": 1985,
      "xmm15{k5}{z}": 1986,
      "v14.b[0x3]": 1987,
      "fmaxp": 1988,
      "v29.h": 1989,
      "k7": 1990,
      "fs9": 1991,
      "ucomiss": 1992,
      "zmm27{k5}": 1993,
      "vcmpltpd": 1994,
      "z15.s": 1995,
      "zmm20{k7}": 1996,
      "d0": 1997,
      "cvtps2dq": 1998,
      "cntvct_el0": 1999,
      "zero": 2000,
      "z2.s[0x1]": 2001,
      "v30.s[0x0]": 2002,
      "sc.w": 2003,
      "ymm24": 2004,
      "lfence": 2005,
      "ymm3{k1}{z}": 2006,
      "xmm17{k2}{z}": 2007,
      "pmovzxbd": 2008,
      "v31.h[0x3]": 2009,
      "s26": 2010,
      "v17.h[0x7]": 2011,
      "addv": 2012,
      "v6.b[0x2]": 2013,
      "sraiw": 2014,
      "amoadd.d.rl": 2015,
      "xmm12{k2}": 2016,
      "v1.d[0x1]": 2017,
      "sxtb": 2018,
      "saddw2": 2019,
      "ymm24{k1}{z}": 2020,
      "zmm3{k5}": 2021,
      "zmm14{k1}{z}": 2022,
      "xmm11{k7}{z}": 2023,
      "fldlg2": 2024,
      "14": 2025,
      "vpandq": 2026,
      "v25.s[0x0]": 2027,
      "zmm9{k4}{z}": 2028,
      "shr": 2029,
      "vandnpd": 2030,
      "w12": 2031,
      "ymm15{k4}": 2032,
      "vmv.s.x": 2033,
      "v26.b[0x4]": 2034,
      "#-0x2^2b": 2035,
      "v6.h[0x6]": 2036,
      "zmm14{k4}": 2037,
      "mm4": 2038,
      "stlr": 2039,
      "v10.h[0x1]": 2040,
      "vpminuw": 2041,
      "vpermi2d": 2042,
      "-0x2^39": 2043,
      "ld1rqb": 2044,
      "r12d": 2045,
      "h6": 2046,
      "xmm15": 2047,
      "sysl": 2048,
      "vpbroadcastd": 2049,
      "v14.h[0x7]": 2050,
      "zmm23{k1}{z}": 2051,
      "z4.b": 2052,
      "x7": 2053,
      "addi": 2054,
      "vmerge.vxm": 2055,
      "xmm3": 2056,
      "smstop": 2057,
      "zmm24": 2058,
      "v1.2d": 2059,
      "-0x2^1f": 2060,
      "fbstp": 2061,
      "zmm21{k3}{z}": 2062,
      "v22.b[0xc]": 2063,
      "v2.s[0x2]": 2064,
      "paddd": 2065,
      "v22.b[0xb]": 2066,
      "vbroadcastf64x2": 2067,
      "v30.b[0x4]": 2068,
      "sbfiz": 2069,
      "xmm13{k2}{z}": 2070,
      "rbp": 2071,
      "xmm2{k5}{z}": 2072,
      "ymm1{k3}": 2073,
      "v23": 2074,
      "amoor.d.aqrl": 2075,
      "ymm23{k4}{z}": 2076,
      "vwmaccu.vx": 2077,
      "z11.d": 2078,
      "v19.8b": 2079,
      "vpinsrq": 2080,
      "z0.q": 2081,
      "cvtsd2ss": 2082,
      "vpshrdw": 2083,
      "zmm10{k3}{z}": 2084,
      "x22": 2085,
      "zmm12{k6}{z}": 2086,
      "vl16": 2087,
      "rdseed": 2088,
      "c.lwsp": 2089,
      "v9.h": 2090,
      "z23.d": 2091,
      "fcvt.s.w": 2092,
      "z13": 2093,
      "xmm5{k5}{z}": 2094,
      "v24.4s": 2095,
      "vpunpcklwd": 2096,
      "v12.8h": 2097,
      "ymm21{k3}{z}": 2098,
      "sll": 2099,
      "q26": 2100,
      "zmm27{k2}": 2101,
      "orps": 2102,
      "st0": 2103,
      "xmm29": 2104,
      "0x2^1b": 2105,
      "vcvtuqq2ps": 2106,
      "ax": 2107,
      "vinserti128": 2108,
      "vpinsrw": 2109,
      "vpavgw": 2110,
      "saddl": 2111,
      "xstore": 2112,
      "p7.b": 2113,
      "v1.2s": 2114,
      "ymm21": 2115,
      "ymm0{k3}": 2116,
      "xmm16{k2}{z}": 2117,
      "pmull": 2118,
      "zmm17{k3}{z}": 2119,
      "p0.b": 2120,
      "vpshrdq": 2121,
      "zmm15{k4}{z}": 2122,
      "d27": 2123,
      "smlsl2": 2124,
      "p15/z": 2125,
      "zmm28{k4}": 2126,
      "xmm12{k5}": 2127,
      "fabs.d": 2128,
      "v1.b[0xa]": 2129,
      "sha1msg2": 2130,
      "zmm18{k2}{z}": 2131,
      "v27.16b": 2132,
      "zmm4{k1}{z}": 2133,
      "a7": 2134,
      "v11.s": 2135,
      "+": 2136,
      "v22.b[0x6]": 2137,
      "ymm10{k6}": 2138,
      "zmm6{k2}": 2139,
      "v13.h[0x0]": 2140,
      "minss": 2141,
      "p1.s": 2142,
      "xcryptecb.rep": 2143,
      "loopnz": 2144,
      "cset": 2145,
      "vpmaxsb": 2146,
      "#0x2^1f": 2147,
      "vpcmpeqd": 2148,
      "v16.h[0x0]": 2149,
      "t4": 2150,
      "st4h": 2151,
      "vcmpunordpd": 2152,
      "xmm8{k6}{z}": 2153,
      "-0x2^27": 2154,
      "rev32": 2155,
      "v31.s[0x3]": 2156,
      "pavgb": 2157,
      "xmm4{k2}{z}": 2158,
      "esp": 2159,
      "srl": 2160,
      "v21.b": 2161,
      "b14": 2162,
      "crc32b": 2163,
      "blsmsk": 2164,
      "v2.2s": 2165,
      "v30.s": 2166,
      "aesmc": 2167,
      "v18.h[0x0]": 2168,
      "v18": 2169,
      "cntfrq_el0": 2170,
      "xmm6{k5}": 2171,
      "z6.h[0x0]": 2172,
      "xmm0{k5}{z}": 2173,
      "vrsqrt14ps": 2174,
      "v30.s[0x1]": 2175,
      "rmm": 2176,
      "v2.s": 2177,
      "#-0xc": 2178,
      "v13.4h": 2179,
      "v0.s[0x1]": 2180,
      "z4.d": 2181,
      "z1.s[0x0]": 2182,
      "v1.s[0x0]": 2183,
      "p8": 2184,
      "vmulsd": 2185,
      "ymm9{k5}": 2186,
      "v8.h[0x1]": 2187,
      "xmm16": 2188,
      "#0xb": 2189,
      "v13.2s": 2190,
      "xmm23{k5}{z}": 2191,
      "vpmuldq": 2192,
      "pmovzxbw": 2193,
      "v7.h[0x7]": 2194,
      "zmm6{k1}": 2195,
      "vfmsub231ps": 2196,
      "vcvtuqq2pd": 2197,
      "zmm18{k2}": 2198,
      "zmm1{k3}{z}": 2199,
      "vaesenc": 2200,
      "vpgatherdq": 2201,
      "v13.h": 2202,
      "#0x5": 2203,
      "v18.d": 2204,
      "zmm2{k6}{z}": 2205,
      "uqshrn": 2206,
      "sc.d": 2207,
      "v19.1d": 2208,
      "v6.8h": 2209,
      "xmm5{k2}{z}": 2210,
      "uqdecw": 2211,
      "ld1r": 2212,
      "v0.b[0xc]": 2213,
      "ld3h": 2214,
      "v25.b[0x1]": 2215,
      "v11.b": 2216,
      "z14.d[0x0]": 2217,
      "sh": 2218,
      "vpsignb": 2219,
      "xmm18{k7}": 2220,
      "v27.h[0x4]": 2221,
      "vmaxsd": 2222,
      "ldar": 2223,
      "zmm26{k5}": 2224,
      "v28.s[0x2]": 2225,
      "prfum": 2226,
      "setp": 2227,
      "vcvtsd2si": 2228,
      "0x2^1f": 2229,
      "v29.b[0x4]": 2230,
      "vphaddd": 2231,
      "xmm18": 2232,
      "z31.b": 2233,
      "xmm16{k4}{z}": 2234,
      "v2.h[0x5]": 2235,
      "zmm5{k5}": 2236,
      "fcom": 2237,
      "swpl": 2238,
      "fs4": 2239,
      "kortestw": 2240,
      "xmm16{k2}": 2241,
      "xmm11{k3}": 2242,
      "sminv": 2243,
      "zmm9{k5}": 2244,
      "z17.q": 2245,
      "zmm25{k6}": 2246,
      "xmm7{k7}{z}": 2247,
      "#-0x1.0p-1": 2248,
      "sh1add": 2249,
      "v13.s": 2250,
      "xmm6{k6}{z}": 2251,
      "sub": 2252,
      "v16.b[0xa]": 2253,
      "v31.h[0x5]": 2254,
      "vpmovusdw": 2255,
      "12": 2256,
      "z13.q": 2257,
      "ymm14{k3}{z}": 2258,
      "z26.b": 2259,
      "v21.b[0x1]": 2260,
      "ymm4{k7}{z}": 2261,
      "ldurh": 2262,
      "zmm8{k6}{z}": 2263,
      "xmm6{k3}{z}": 2264,
      "#0x3": 2265,
      "v31.d[0x1]": 2266,
      "ymm17{k4}{z}": 2267,
      "amomaxu.w.aq": 2268,
      "punpcklqdq": 2269,
      "fcmovnbe": 2270,
      "vpaddd": 2271,
      "xmm18{k1}": 2272,
      "xmm18{k4}": 2273,
      "z22": 2274,
      "zmm27{k3}{z}": 2275,
      "v3.s[0x0]": 2276,
      "v23.s[0x1]": 2277,
      "st2h": 2278,
      "v9.d[1]": 2279,
      "sha1rnds4": 2280,
      "v1.h[0x6]": 2281,
      "fcvtpu": 2282,
      "v21.1q": 2283,
      "v29.s[0x3]": 2284,
      "kandb": 2285,
      "v8.d[1]": 2286,
      "ldrsh": 2287,
      "zmm27{k1}": 2288,
      "p2.b": 2289,
      "x4": 2290,
      "vlse8.v": 2291,
      "vsubss": 2292,
      "kmovd": 2293,
      "w4": 2294,
      "pblendvb": 2295,
      "prefetch": 2296,
      "vaeskeygenassist": 2297,
      "zmm5{k3}{z}": 2298,
      "pushad": 2299,
      "w29": 2300,
      "zmm5{k7}{z}": 2301,
      "bzhi": 2302,
      "xmm3{k2}": 2303,
      "xmm30": 2304,
      "ymm28{k6}{z}": 2305,
      "b.le": 2306,
      "cmpsb.repe": 2307,
      "s14": 2308,
      "amomaxu.d.aq": 2309,
      "!": 2310,
      "zmm12{k7}": 2311,
      "z3.b": 2312,
      "sqrshrn": 2313,
      "fcos": 2314,
      "float": 2315,
      "ymm15": 2316,
      "xor.lock": 2317,
      "v13.b[0x2]": 2318,
      "xmm15{k4}": 2319,
      "c.ld": 2320,
      "zmm27": 2321,
      "zmm20{k4}{z}": 2322,
      "#0x2^3d": 2323,
      "xmm11": 2324,
      "ficomp": 2325,
      "vphaddw": 2326,
      "vperm2i128": 2327,
      "b.gt": 2328,
      "v11.b[0x7]": 2329,
      "z31.q[0x0]": 2330,
      "vpminsw": 2331,
      "ymm4{k4}{z}": 2332,
      "v4.2s": 2333,
      "packusdw": 2334,
      "z7.d[0x1]": 2335,
      "v12.h": 2336,
      "ctr_el0": 2337,
      "v3.4s": 2338,
      "zmm20{k6}": 2339,
      "pcmpistrm": 2340,
      "v15.h[0x3]": 2341,
      "p7.d": 2342,
      "ymm12{k2}{z}": 2343,
      "z2.s[0x3]": 2344,
      "zmm31{k4}": 2345,
      "p1/z": 2346,
      "psrldq": 2347,
      "v9.h[0x1]": 2348,
      "-0x2^3c": 2349,
      "ymm21{k2}": 2350,
      "w28": 2351,
      "zmm2{k7}{z}": 2352,
      "v20.8b": 2353,
      "z12.d[0x0]": 2354,
      "vfnmsub231sd": 2355,
      "fnmsub.s": 2356,
      "kunpckwd": 2357,
      "uqshrn2": 2358,
      "ish": 2359,
      "v29.b": 2360,
      "v1.s[0x3]": 2361,
      "zmm4{k4}{z}": 2362,
      "vpshufb": 2363,
      "v27.2d": 2364,
      "w21": 2365,
      "v11.8h": 2366,
      "fs10": 2367,
      "xmm10": 2368,
      "xmm14{k7}{z}": 2369,
      "v16.h[0x3]": 2370,
      "ymm2{k2}": 2371,
      "vpscatterdq": 2372,
      "x13!": 2373,
      "vpsubq": 2374,
      "v24.s[0x2]": 2375,
      "h21": 2376,
      "fcmle": 2377,
      "vpsrlvw": 2378,
      "vpermt2q": 2379,
      "s21": 2380,
      "v18.16b": 2381,
      "v30.b[0x2]": 2382,
      "z9.b": 2383,
      "ymm19{k1}{z}": 2384,
      "zmm10{k1}{z}": 2385,
      "v0.s[0x3]": 2386,
      "z5.h": 2387,
      "v17.d[0x0]": 2388,
      "ymm24{k2}{z}": 2389,
      "ushl": 2390,
      "kshiftlb": 2391,
      "v29.4s": 2392,
      "xmm8{k2}{z}": 2393,
      "setpp": 2394,
      "v29.s[0x0]": 2395,
      "v5.16b": 2396,
      "svc": 2397,
      "kandd": 2398,
      "p10": 2399,
      "vpsubusb": 2400,
      "ldrb": 2401,
      "vwsub.vx": 2402,
      "v27.b[0xa]": 2403,
      "v23.b[0x3]": 2404,
      "sshl": 2405,
      "zmm1{k1}": 2406,
      "v2.b[0xe]": 2407,
      "v30.4h": 2408,
      "v28.h[0x6]": 2409,
      "0x2^2b": 2410,
      "vcvttss2usi": 2411,
      "xmm11{k7}": 2412,
      "zmm6": 2413,
      "p11.b": 2414,
      "sxth": 2415,
      "c.add": 2416,
      "vshufps": 2417,
      "zmm6{k6}": 2418,
      "v3.2s": 2419,
      "vpmovdb": 2420,
      "v23.b[0x6]": 2421,
      "vpsravq": 2422,
      "fucompp": 2423,
      "cbnz": 2424,
      "xmm14{k6}": 2425,
      "vpermi2w": 2426,
      "xmm15{k3}{z}": 2427,
      "z8.b": 2428,
      "sext.w": 2429,
      "cmovns": 2430,
      "ymm10{k6}{z}": 2431,
      "p12.h": 2432,
      "q0": 2433,
      "v20.d": 2434,
      "pmull2": 2435,
      "v6.h[0x7]": 2436,
      "s30": 2437,
      "ymm7{k3}": 2438,
      "ft1": 2439,
      "v12.s[0x3]": 2440,
      "x2!": 2441,
      "p11.s": 2442,
      "s17": 2443,
      "zmm9{k5}{z}": 2444,
      "ccmn": 2445,
      "v26.h[0x2]": 2446,
      "v17.2d": 2447,
      "v13.h[0x1]": 2448,
      "v6.b": 2449,
      "v24.b[0x0]": 2450,
      "vpternlogq": 2451,
      "#-0x2^d": 2452,
      "pf2iw": 2453,
      "v22.b[0xa]": 2454,
      "ymm5{k2}": 2455,
      "ymm8{k5}{z}": 2456,
      "r12w": 2457,
      "movi": 2458,
      "v17.s[0x3]": 2459,
      "v18.s[0x0]": 2460,
      "vpdpbusd": 2461,
      "z20.d": 2462,
      "fdiv.d": 2463,
      "#-0x2^16": 2464,
      "andps": 2465,
      "vpmuludq": 2466,
      "sqadd": 2467,
      "v15.4h": 2468,
      "sunpkhi": 2469,
      "vcmpltsd": 2470,
      "lsh": 2471,
      "zmm5{k6}{z}": 2472,
      "zmm17{k5}{z}": 2473,
      "zmm21{k1}": 2474,
      "vcvtsi2ss": 2475,
      "v30.b[0xe]": 2476,
      "pmovsxbd": 2477,
      "ymm0{k6}{z}": 2478,
      "v8.d[0x1]": 2479,
      "v25.8h": 2480,
      "fmsub.s": 2481,
      "zmm22{k3}": 2482,
      "v29.h[0x5]": 2483,
      "zmm2{k4}": 2484,
      "v26.d[0x1]": 2485,
      "v3.h[0x7]": 2486,
      "ymm17{k6}": 2487,
      "q14": 2488,
      "zmm16{k3}": 2489,
      "ymm16{k4}": 2490,
      "bh": 2491,
      "zmm4{k4}": 2492,
      "z15.d[0x0]": 2493,
      "v7.d[1]": 2494,
      "jne": 2495,
      "xmm11{k1}": 2496,
      "v17.b[0x5]": 2497,
      "xmm9{k6}{z}": 2498,
      "psrlq": 2499,
      "saba": 2500,
      "v28.1d": 2501,
      "zmm8": 2502,
      "vptestmw": 2503,
      "v24.b[0x4]": 2504,
      "v23.2s": 2505,
      "v3.b[0x5]": 2506,
      "casa": 2507,
      "v5.h[0x6]": 2508,
      "incw": 2509,
      "vpblendmd": 2510,
      "rtz": 2511,
      "fmv.x.w": 2512,
      "v22.2s": 2513,
      "vmulpd": 2514,
      "v9.h[0x2]": 2515,
      "xmm4{k1}{z}": 2516,
      "v26.s": 2517,
      "usmmla": 2518,
      "#-0x2^2f": 2519,
      "v9.8h": 2520,
      "xmm16{k3}{z}": 2521,
      "ymm8{k6}{z}": 2522,
      "zmm19{k6}{z}": 2523,
      "v16.d[1]": 2524,
      "vfmsub231sd": 2525,
      "roriw": 2526,
      "ymm13{k3}": 2527,
      "ptrue": 2528,
      "vldmxcsr": 2529,
      "vinserti32x4": 2530,
      "asr": 2531,
      "jl": 2532,
      "k5": 2533,
      "x30!": 2534,
      "0x2^11": 2535,
      "zmm2{k6}": 2536,
      "rdvl": 2537,
      "rem": 2538,
      "zmm14{k6}{z}": 2539,
      "v30.b[0x6]": 2540,
      "#-0x5": 2541,
      "xmm17{k3}{z}": 2542,
      "zmm4{k2}{z}": 2543,
      "c.and": 2544,
      "xmm6": 2545,
      "v17.2s": 2546,
      "#-0x2^13": 2547,
      "v24.s": 2548,
      "movapd": 2549,
      "vcmpgtpd": 2550,
      "cmple": 2551,
      "xmm15{k1}": 2552,
      "zmm27{k2}{z}": 2553,
      "vcvtdq2ps": 2554,
      "zmm7{k1}": 2555,
      "punpkhi": 2556,
      "ymm7{k7}": 2557,
      "v10.s[0x1]": 2558,
      "q27": 2559,
      "sti": 2560,
      "v14.d[1]": 2561,
      "vcvtps2pd": 2562,
      "v10.h[0x0]": 2563,
      "v19.b[0x1]": 2564,
      "v19.s[0x3]": 2565,
      "paddq": 2566,
      "vpunpcklqdq": 2567,
      "ymm18{k1}": 2568,
      "z25.q[0x0]": 2569,
      "cmpltss": 2570,
      "vpinsrb": 2571,
      "vcmpltps": 2572,
      "v8.h[0x0]": 2573,
      "jz": 2574,
      "xmm1{k2}": 2575,
      "v31.4s": 2576,
      "v3.b[0x8]": 2577,
      "amoand.d": 2578,
      "v27.b[0x0]": 2579,
      "zmm8{k3}": 2580,
      "r10": 2581,
      "smaxv": 2582,
      "v6": 2583,
      "ymm30": 2584,
      "zmm0{k2}{z}": 2585,
      "abs": 2586,
      "vfmaddsub213ps": 2587,
      "vpmovsxbd": 2588,
      "v27.b[0x9]": 2589,
      "v16.s[0x0]": 2590,
      "seta": 2591,
      "#0x1.0p+4": 2592,
      "vshufpd": 2593,
      "v3.h[0x5]": 2594,
      "fmov": 2595,
      "cmpeq": 2596,
      "v6.d[0x0]": 2597,
      "ursra": 2598,
      "v27.b[0x8]": 2599,
      "vpcmpnltuw": 2600,
      "vpcmpleuq": 2601,
      "zmm14{k7}": 2602,
      "vpandn": 2603,
      "v19.d[0x1]": 2604,
      "rax": 2605,
      "v12": 2606,
      "ldclral": 2607,
      "v11.b[0x2]": 2608,
      "paddb": 2609,
      "zmm10{k4}{z}": 2610,
      "uminp": 2611,
      "v17.h": 2612,
      "ymm3{k5}{z}": 2613,
      "v14.b[0x5]": 2614,
      "-0x2^16": 2615,
      "z8.d": 2616,
      "ktestw": 2617,
      "fa0": 2618,
      "v24.b": 2619,
      "cmtst": 2620,
      "ymm6{k2}{z}": 2621,
      "msl": 2622,
      "p9.s": 2623,
      "s25": 2624,
      "fcmovnb": 2625,
      "v10.s": 2626,
      "vpbroadcastq": 2627,
      "v23.h[0x0]": 2628,
      "v3.d": 2629,
      "rcpss": 2630,
      "v26.b[0xf]": 2631,
      "xtest": 2632,
      "xmm24{k7}{z}": 2633,
      "zip2": 2634,
      "v0.h[0x1]": 2635,
      "v11.d[0x0]": 2636,
      "z4.q": 2637,
      "v17.4s": 2638,
      "v6.h[0x3]": 2639,
      "v29.h[0x2]": 2640,
      "vssub.vv": 2641,
      "b20": 2642,
      "v28.4h": 2643,
      "ftst": 2644,
      "z12.h": 2645,
      "v10.4s": 2646,
      "vpermt2d": 2647,
      "#0xe": 2648,
      "c.fld": 2649,
      "vpternlogd": 2650,
      "jr": 2651,
      "vcmpordps": 2652,
      "fdiv.s": 2653,
      "#0x2^38": 2654,
      "xmm10{k6}{z}": 2655,
      "v17.1q": 2656,
      "#0x2^1c": 2657,
      "vpmovsdw": 2658,
      "v2.h[0x7]": 2659,
      "v1.1d": 2660,
      "v28.b[0xf]": 2661,
      "ldg": 2662,
      "v3.b[0xa]": 2663,
      "ymm13{k7}{z}": 2664,
      "haddpd": 2665,
      "#-0x2^2d": 2666,
      "xmm9{k5}": 2667,
      "vprold": 2668,
      "zmm7{k3}": 2669,
      "vpbroadcastw": 2670,
      "z21.s": 2671,
      "frrm": 2672,
      "fclass.s": 2673,
      "sqxtn2": 2674,
      "xmm18{k5}": 2675,
      "tbx": 2676,
      "vpunpckhwd": 2677,
      "vpextrb": 2678,
      "v5.s[0x2]": 2679,
      "z6.q[0x0]": 2680,
      "ft11": 2681,
      "w6": 2682,
      "mm7": 2683,
      "v13.s[0x3]": 2684,
      "z28.d": 2685,
      "negw": 2686,
      "ymm2{k6}{z}": 2687,
      "zmm19{k5}{z}": 2688,
      "xmm27{k2}{z}": 2689,
      "v5.s[0x3]": 2690,
      "stlrh": 2691,
      "p9.d": 2692,
      "v7.b[0x3]": 2693,
      "xmm22{k6}": 2694,
      "z4": 2695,
      "v27.d[0x0]": 2696,
      "p10.s": 2697,
      "v9": 2698,
      "xcryptofb.rep": 2699,
      "xmm26": 2700,
      "x9!": 2701,
      "ymm27": 2702,
      "zmm19{k3}{z}": 2703,
      "v27.h[0x5]": 2704,
      "xmm20{k1}{z}": 2705,
      "vinsertf64x4": 2706,
      "v27.2s": 2707,
      "ldxw": 2708,
      "ymm13{k6}{z}": 2709,
      "a0": 2710,
      "v27.h": 2711,
      "zmm14{k5}": 2712,
      "vpcmpled": 2713,
      "v11.s[0x3]": 2714,
      "bfxil": 2715,
      "pextrq": 2716,
      "ld1sh": 2717,
      "v22.b[0x0]": 2718,
      "v25.s": 2719,
      "zmm10{k5}": 2720,
      "fclass.d": 2721,
      "xmm28{k4}": 2722,
      "vpextrw": 2723,
      "uminv": 2724,
      "q6": 2725,
      "xmm13{k5}{z}": 2726,
      "v30.h[0x5]": 2727,
      "v0.h[0x4]": 2728,
      "sxtl": 2729,
      "z24": 2730,
      "stzg": 2731,
      "x27": 2732,
      "x14!": 2733,
      "d6": 2734,
      "c.srai": 2735,
      "z15.d": 2736,
      "zmm14": 2737,
      "p14.d": 2738,
      "ymm7{k1}": 2739,
      "rshrn": 2740,
      "v17.h[0x1]": 2741,
      "-0x2^22": 2742,
      "mm3": 2743,
      "v29.b[0x5]": 2744,
      "b16": 2745,
      "v0.b[0x4]": 2746,
      "v26.h[0x5]": 2747,
      "cbz": 2748,
      "vredsum.vs": 2749,
      "v20.b[0x1]": 2750,
      "-0x2^11": 2751,
      "sil": 2752,
      "zmm18{k4}": 2753,
      "ss": 2754,
      "v6.b[0x6]": 2755,
      "zmm22{k4}{z}": 2756,
      "rcx": 2757,
      "a4": 2758,
      "vmovhlps": 2759,
      "z17": 2760,
      "ymm21{k1}{z}": 2761,
      "xmm17{k1}": 2762,
      "udf": 2763,
      "v11.2d": 2764,
      "xmm17{k3}": 2765,
      "setle": 2766,
      "cash": 2767,
      "cmpleps": 2768,
      "vblendpd": 2769,
      "vinserti64x4": 2770,
      "vcmpnleps": 2771,
      "p13.s": 2772,
      "q1": 2773,
      "ymm1{k6}{z}": 2774,
      "v2.1d": 2775,
      "vcvttpd2dq": 2776,
      "movk": 2777,
      "v14.b[0x4]": 2778,
      "xmm22{k1}{z}": 2779,
      "ymm28": 2780,
      "v31.b": 2781,
      "cmpne": 2782,
      "v16.b[0x3]": 2783,
      "sha256msg1": 2784,
      "z8.s": 2785,
      "vcvttpd2udq": 2786,
      "vsse16.v": 2787,
      "v27.8b": 2788,
      "vpblendw": 2789,
      "vroundsd": 2790,
      "xgetbv": 2791,
      "fpcr": 2792,
      "cmpsd": 2793,
      "t5": 2794,
      "vbroadcastf32x4": 2795,
      "cbw": 2796,
      "ymm3": 2797,
      "v27.b[0x5]": 2798,
      "ymm8{k1}{z}": 2799,
      "di": 2800,
      "zmm1": 2801,
      "v30.b[0xb]": 2802,
      "strb": 2803,
      "q22": 2804,
      "#0x2^16": 2805,
      "v5.h[0x3]": 2806,
      "vdivss": 2807,
      "v22.h[0x2]": 2808,
      "xmm19{k1}": 2809,
      "z27.q": 2810,
      "sha256msg2": 2811,
      "zmm13{k3}": 2812,
      "vmacc.vx": 2813,
      "crc32x": 2814,
      "0x2^15": 2815,
      "sra": 2816,
      "movlhps": 2817,
      "z20": 2818,
      "z14.s": 2819,
      "z31.s[0x0]": 2820,
      "z7.h": 2821,
      "zmm14{k6}": 2822,
      "v24.s[0x3]": 2823,
      "v18.1d": 2824,
      "umlal2": 2825,
      "zmm10{k7}": 2826,
      "#-0x2^27": 2827,
      "zmm18{k6}{z}": 2828,
      "x11": 2829,
      "ymm7{k3}{z}": 2830,
      "v7.s": 2831,
      "zmm26{k3}": 2832,
      "zmm9{k2}": 2833,
      "fneg.s": 2834,
      "vpsraw": 2835,
      "z17.h": 2836,
      "pmaxsd": 2837,
      "korq": 2838,
      "v28.b[0xe]": 2839,
      "#-0x8": 2840,
      "xmm5{k2}": 2841,
      "ymm12": 2842,
      "vpdpwssd": 2843,
      "x23!": 2844,
      "umlsl2": 2845,
      "psllq": 2846,
      "zmm12{k5}{z}": 2847,
      "v22": 2848,
      "vfmadd132ps": 2849,
      "pi2fd": 2850,
      "v29.8h": 2851,
      "r13d": 2852,
      "vpmovw2m": 2853,
      "v20": 2854,
      "fcvt.w.s": 2855,
      "v7.h[0x2]": 2856,
      "p0.h": 2857,
      "zmm23{k4}": 2858,
      "v19.h[0x0]": 2859,
      "ymm19": 2860,
      "v15.h[0x5]": 2861,
      "pmuldq": 2862,
      "v11.4s": 2863,
      "v2.b[0x3]": 2864,
      "ldxh": 2865,
      "v11.16b": 2866,
      "v27.h[0x1]": 2867,
      "fnmadd": 2868,
      "ubfiz": 2869,
      "zmm0{k1}": 2870,
      "vpsrldq": 2871,
      "#-0x2^14": 2872,
      "cmplepd": 2873,
      "v8.b[0x0]": 2874,
      "v12.h[0x2]": 2875,
      "#0.5": 2876,
      "v7.h[0x4]": 2877,
      "-0x2^2d": 2878,
      "ficom": 2879,
      "x19": 2880,
      "nop": 2881,
      "#0x2^2f": 2882,
      "casb": 2883,
      "zmm20{k1}": 2884,
      "uqxtn2": 2885,
      "urhadd": 2886,
      "st4": 2887,
      "v20.1d": 2888,
      "cvtss2si": 2889,
      "ymm4{k1}{z}": 2890,
      "v4.1q": 2891,
      "#0x2^36": 2892,
      "v11.d": 2893,
      "amoor.w": 2894,
      "zmm10": 2895,
      "leave": 2896,
      "fcvtzs": 2897,
      "js": 2898,
      "cvttpd2dq": 2899,
      "vpermilpd": 2900,
      "v16.2s": 2901,
      "v26.4s": 2902,
      "fcvt.d.l": 2903,
      "vpconflictd": 2904,
      "vadd.vx": 2905,
      "qword_ptr": 2906,
      "pcmpeqq": 2907,
      "w14": 2908,
      "psubusb": 2909,
      "z14.s[0x0]": 2910,
      "v16.b": 2911,
      "amoand.w.aqrl": 2912,
      "p5.b": 2913,
      "addps": 2914,
      "movss": 2915,
      "zmm2{k3}{z}": 2916,
      "st2": 2917,
      "frintz": 2918,
      "v8.h[0x3]": 2919,
      "xmm17{k2}": 2920,
      "z5": 2921,
      "zmm4{k2}": 2922,
      "v26.h[0x0]": 2923,
      "v22.h": 2924,
      "fldln2": 2925,
      "v4.b[0x7]": 2926,
      "zmm1{k5}": 2927,
      "xmm22": 2928,
      "v28.b[0x2]": 2929,
      "pclmulhqhqdq": 2930,
      "fa1": 2931,
      "v7.b": 2932,
      "z10.s": 2933,
      "v1.b[0x1]": 2934,
      "ld4h": 2935,
      "v21.h[0x3]": 2936,
      "v26.h[0x1]": 2937,
      "vsub.vv": 2938,
      "d12": 2939,
      "v22.b[0x3]": 2940,
      "v22.1d": 2941,
      "v21.s[0x0]": 2942,
      "#-0x2^7": 2943,
      "umull2": 2944,
      "z23.d[0x0]": 2945,
      "v7.1d": 2946,
      "movshdup": 2947,
      "ymm22{k3}{z}": 2948,
      "b11": 2949,
      "z12.s": 2950,
      "cc": 2951,
      "ldxrh": 2952,
      "vcvtpd2qq": 2953,
      "tzcnt": 2954,
      "xmm20{k2}": 2955,
      "jmpf": 2956,
      "v15.h[0x4]": 2957,
      "vpmovuswb": 2958,
      "d21": 2959,
      "zmm5{k4}": 2960,
      "s3": 2961,
      "ymm8": 2962,
      "vrcpps": 2963,
      "shsub": 2964,
      "usubw2": 2965,
      "v16.d[0x0]": 2966,
      "v3.s": 2967,
      "zmm0{k4}": 2968,
      "z1.d": 2969,
      "zmm8{k2}": 2970,
      "ymm10{k5}": 2971,
      "ymm14{k4}{z}": 2972,
      "v0.2d": 2973,
      "#-0xd": 2974,
      "z30.q": 2975,
      "kshiftlq": 2976,
      "xmm3{k7}{z}": 2977,
      "psllw": 2978,
      "ymm0{k4}": 2979,
      "ldurb": 2980,
      "pcmpeqw": 2981,
      "0x2^0": 2982,
      "cvtsi2ss": 2983,
      "fistp": 2984,
      "#-0x2^21": 2985,
      "fimul": 2986,
      "v12.8b": 2987,
      "z4.s[0x0]": 2988,
      "#0x2^4": 2989,
      "ldrsw": 2990,
      "fcmge": 2991,
      "v21.b[0x4]": 2992,
      "v23.s[0x2]": 2993,
      "c.nop": 2994,
      "xabort": 2995,
      "v22.s[0x1]": 2996,
      "v23.8b": 2997,
      "blsr": 2998,
      "v18.d[0x0]": 2999,
      "ucvtf": 3000,
      "ymm12{k1}": 3001,
      "ymm16{k7}": 3002,
      "ymm23{k1}{z}": 3003,
      "vcvttps2dq": 3004,
      "q18": 3005,
      "ymm0{k1}": 3006,
      "v8.h[0x2]": 3007,
      "esi": 3008,
      "z17.d[0x0]": 3009,
      "v5.h[0x5]": 3010,
      "paciasp": 3011,
      "subss": 3012,
      "lr.w.aqrl": 3013,
      "vpmovzxbw": 3014,
      "pcmpgtb": 3015,
      "v30.s[0x2]": 3016,
      "k1": 3017,
      "kord": 3018,
      "cmpltsd": 3019,
      "psubusw": 3020,
      "z26.q": 3021,
      "stp": 3022,
      "popfd": 3023,
      "vpsrlvd": 3024,
      "zmm16{k3}{z}": 3025,
      "#0x2^26": 3026,
      "v0.4s": 3027,
      "zmm26{k1}{z}": 3028,
      "ymm0{k5}": 3029,
      "shld": 3030,
      "v17.b[0x2]": 3031,
      "v7.b[0x4]": 3032,
      "vle8.v": 3033,
      "v10.d[0x0]": 3034,
      "r9d": 3035,
      "zmm24{k4}": 3036,
      "v17.16b": 3037,
      "v30.b[0xd]": 3038,
      "v23.b[0xe]": 3039,
      "cinc": 3040,
      "v16.b[0xd]": 3041,
      "v30.h[0x6]": 3042,
      "pmullw": 3043,
      "#-0x2^3c": 3044,
      "vpxord": 3045,
      "bp": 3046,
      "c.j": 3047,
      "v31.b[0x9]": 3048,
      "vaddpd": 3049,
      "vpsrad": 3050,
      "kxnorb": 3051,
      "stosb": 3052,
      "bswap": 3053,
      "st1d": 3054,
      "ymm8{k3}{z}": 3055,
      "xmm9{k2}{z}": 3056,
      "v15.h[0x0]": 3057,
      "xmm4{k4}{z}": 3058,
      "v1.b[0xc]": 3059,
      "*": 3060,
      "vfnmadd213sd": 3061,
      "v29.d[1]": 3062,
      "cntb": 3063,
      "zmm11{k7}{z}": 3064,
      "fmv.x.d": 3065,
      "v11.b[0x3]": 3066,
      "ymm5{k5}": 3067,
      "p4.h": 3068,
      "sar": 3069,
      "pswapd": 3070,
      "#0.0": 3071,
      "ld4": 3072,
      "v19.b[0x2]": 3073,
      "h25": 3074,
      "{k5}": 3075,
      "v0.1q": 3076,
      "vpblendd": 3077,
      "vfnmadd231ps": 3078,
      "setnz": 3079,
      "ldaxr": 3080,
      "sets": 3081,
      "zmm11{k7}": 3082,
      "0x2^2f": 3083,
      "v0.b[0x8]": 3084,
      "xmm19{k3}{z}": 3085,
      "v13.1q": 3086,
      "fcvtl": 3087,
      "xmm1{k1}{z}": 3088,
      "push": 3089,
      "z29": 3090,
      "ld3d": 3091,
      "vcvtqq2pd": 3092,
      "dword_ptr": 3093,
      "k0": 3094,
      "ymm10{k2}": 3095,
      "jp": 3096,
      "vmax.vv": 3097,
      "#-0x2^5": 3098,
      "zmm7{k7}{z}": 3099,
      "fcompp": 3100,
      "eorv": 3101,
      "aeskeygenassist": 3102,
      "zmm3{k7}": 3103,
      "v1.b[0x2]": 3104,
      "vpmulhw": 3105,
      "vamoandei64.v": 3106,
      "r2": 3107,
      "fcvtmu": 3108,
      "vfmadd231ss": 3109,
      "-0x2^3d": 3110,
      "vmsleu.vv": 3111,
      "v15.b[0x1]": 3112,
      "v14.4s": 3113,
      "rev64": 3114,
      "z2.b": 3115,
      "cas": 3116,
      "v31.b[0x4]": 3117,
      "fs1": 3118,
      "zmm13{k4}": 3119,
      "v26.d[0x0]": 3120,
      "z16.q": 3121,
      "xmm0{k1}": 3122,
      "vcvttps2udq": 3123,
      "v2.b[0xb]": 3124,
      "v9.1d": 3125,
      "v5.4s": 3126,
      "vaesdec": 3127,
      "z4.q[0x0]": 3128,
      "vpcmpleq": 3129,
      "c.andi": 3130,
      "v2.s[0x0]": 3131,
      "0x2^34": 3132,
      "ft9": 3133,
      "#-0x10": 3134,
      "v30.h[0x4]": 3135,
      "sbc": 3136,
      "v24.b[0x2]": 3137,
      "kortestq": 3138,
      "z12.d": 3139,
      "v15.h": 3140,
      "vblendvps": 3141,
      "ymm5{k3}{z}": 3142,
      "vcvttpd2qq": 3143,
      "v26.2s": 3144,
      "ldapr": 3145,
      "xmm1{k1}": 3146,
      "fa7": 3147,
      "v18.8h": 3148,
      "jal": 3149,
      "pmovzxwd": 3150,
      "v15.h[0x6]": 3151,
      "aese": 3152,
      "srsra": 3153,
      "xmm0": 3154,
      "fcvt.l.s": 3155,
      "vl6": 3156,
      "p15": 3157,
      "vextracti64x2": 3158,
      "v30.b[0xc]": 3159,
      "vptestmb": 3160,
      "v22.h[0x4]": 3161,
      "ld1h": 3162,
      "vpopcntb": 3163,
      "c.xor": 3164,
      "sadalp": 3165,
      "xmm12": 3166,
      "v0.b[0x5]": 3167,
      "p0.s": 3168,
      "v22.b[0xe]": 3169,
      "xmm11{k2}": 3170,
      "v0.1d": 3171,
      "maskmovdqu": 3172,
      "#-0x6": 3173,
      "hi": 3174,
      "0x2^13": 3175,
      "lodsb": 3176,
      "-0x2^1e": 3177,
      "b1": 3178,
      "z6.s[0x1]": 3179,
      "x3!": 3180,
      "p2": 3181,
      "zmm28{k1}{z}": 3182,
      "v31.b[0xb]": 3183,
      "xmm3{k6}{z}": 3184,
      "v29.8b": 3185,
      "h23": 3186,
      "zva": 3187,
      "zmm9{k2}{z}": 3188,
      "v3.b[0x2]": 3189,
      "z29.q[0x0]": 3190,
      "#-0x2^3b": 3191,
      "v20.h[0x0]": 3192,
      "cmpneqps": 3193,
      "z10.b": 3194,
      "v0.b[0x3]": 3195,
      "vsqrtpd": 3196,
      "sha1p": 3197,
      "z13.s[0x0]": 3198,
      "xmm12{k3}": 3199,
      "sshll2": 3200,
      "v21.s[0x3]": 3201,
      "p7.s": 3202,
      "ori": 3203,
      "zmm16{k2}{z}": 3204,
      "v8.s[0x0]": 3205,
      "vmovupd": 3206,
      "jns": 3207,
      "zmm25{k6}{z}": 3208,
      "z24.b": 3209,
      "movmskps": 3210,
      "fs0": 3211,
      "cmpnlesd": 3212,
      "c0x0": 3213,
      "grevi": 3214,
      "v14.h[0x4]": 3215,
      "cmpsw.repe": 3216,
      "vwmacc.vv": 3217,
      "v8.b[0x3]": 3218,
      "ldclrl": 3219,
      "v14.8h": 3220,
      "umin": 3221,
      "v9.16b": 3222,
      "vcvtudq2ps": 3223,
      "h28": 3224,
      "z19.h": 3225,
      "ldset": 3226,
      "dupm": 3227,
      "v23.b[0x9]": 3228,
      "ffree": 3229,
      "vpclmulhqhqdq": 3230,
      "fcvt.d.w": 3231,
      "v24.1d": 3232,
      "xmm8{k2}": 3233,
      "v25.d[0x1]": 3234,
      "zmm15{k6}": 3235,
      "vpminsb": 3236,
      "v11.d[0x1]": 3237,
      "ymm22{k2}": 3238,
      "vfmsubadd213pd": 3239,
      "b.pl": 3240,
      "ymm26{k4}{z}": 3241,
      "#0x2^37": 3242,
      "revw": 3243,
      "w2": 3244,
      "finit": 3245,
      "ymm10{k2}{z}": 3246,
      "v4.8b": 3247,
      "0x2^3": 3248,
      "zmm17{k1}{z}": 3249,
      "z2.d": 3250,
      "zmm0{k1}{z}": 3251,
      "st1h": 3252,
      "#-0x2^31": 3253,
      "pl": 3254,
      "pmaxub": 3255,
      "p10.d": 3256,
      "vmaxpd": 3257,
      "#-0x2^f": 3258,
      "vcmpgeps": 3259,
      "fadda": 3260,
      "w3": 3261,
      "movsd": 3262,
      "vcmpgt_oqps": 3263,
      "z10.h": 3264,
      "v1.4s": 3265,
      "v25.s[0x1]": 3266,
      "pcmpestri": 3267,
      "v4.b": 3268,
      "x30": 3269,
      "s6": 3270,
      "0x2^2d": 3271,
      "0x2^17": 3272,
      "cmpxchg.lock": 3273,
      "#-0x2^c": 3274,
      "fnmsub.d": 3275,
      "r15": 3276,
      "stlxrb": 3277,
      "q4": 3278,
      "zmm11{k2}": 3279,
      "z30.s[0x0]": 3280,
      "xmm0{k4}{z}": 3281,
      "zmm1{k7}": 3282,
      "v7.b[0x5]": 3283,
      "jnz": 3284,
      "z24.d": 3285,
      "ymm3{k1}": 3286,
      "v6.d[0x1]": 3287,
      "#0x2^13": 3288,
      "v14.1d": 3289,
      "v14.b[0x0]": 3290,
      "-0x2^33": 3291,
      "zmm0{k6}": 3292,
      "p9.h": 3293,
      "v7": 3294,
      "0x2^b": 3295,
      "z25.q": 3296,
      "v4": 3297,
      "zmm8{k5}{z}": 3298,
      "zmm10{k6}": 3299,
      "ymm12{k3}{z}": 3300,
      "c.lui": 3301,
      "fidiv": 3302,
      "c0x5": 3303,
      "vbroadcasti32x8": 3304,
      "zmm12{k1}{z}": 3305,
      "facgt": 3306,
      "xmm0{k6}{z}": 3307,
      "vwadd.wv": 3308,
      "xmm10{k4}": 3309,
      "z19.s": 3310,
      "v31.2d": 3311,
      "p4.d": 3312,
      "knotw": 3313,
      "{k4}": 3314,
      "ymm30{k2}{z}": 3315,
      "vmulss": 3316,
      "xmm4{k7}{z}": 3317,
      "knotq": 3318,
      "v30.s[0x3]": 3319,
      "vfnmadd213ss": 3320,
      "ymm17": 3321,
      "z2": 3322,
      "xmm1{k5}": 3323,
      "fmaxnm": 3324,
      "sm3tt2b": 3325,
      "flw": 3326,
      "lr.d.aqrl": 3327,
      "-0x2^1": 3328,
      "#-0x2^33": 3329,
      "zmm17{k4}{z}": 3330,
      "cnot": 3331,
      "xmm20": 3332,
      "vfmadd213ps": 3333,
      "aesenclast": 3334,
      "zmm2{k1}{z}": 3335,
      "vmovsldup": 3336,
      "ymm7{k5}{z}": 3337,
      "v8.16b": 3338,
      "ymm22{k1}": 3339,
      "fxsave": 3340,
      "zmm24{k5}{z}": 3341,
      "ymm11": 3342,
      "v4.16b": 3343,
      "zmm4{k3}{z}": 3344,
      "v11.1d": 3345,
      "v16.b[0x5]": 3346,
      "xmm25{k3}{z}": 3347,
      "fcmeq": 3348,
      "z31.d": 3349,
      "zmm27{k3}": 3350,
      "p0.d": 3351,
      "pminuw": 3352,
      "xmm25": 3353,
      "vcvtss2si": 3354,
      "vpmadd52huq": 3355,
      "ymm22{k7}": 3356,
      "vpabsq": 3357,
      "v22.s[0x3]": 3358,
      "z6.d[0x1]": 3359,
      "x20!": 3360,
      "std": 3361,
      "z3.s[0x3]": 3362,
      "xmm13{k6}{z}": 3363,
      "vpabsb": 3364,
      "umaxv": 3365,
      "xmm24{k7}": 3366,
      "ymm16{k7}{z}": 3367,
      "fs3": 3368,
      "p15/m": 3369,
      "amoadd.d.aqrl": 3370,
      "v31.b[0x1]": 3371,
      "v15.s[0x2]": 3372,
      "v2.b[0x1]": 3373,
      "x26": 3374,
      "setg": 3375,
      "v31.b[0x7]": 3376,
      "zmm21{k2}{z}": 3377,
      "zmm22{k7}": 3378,
      "v31.d[1]": 3379,
      "d14": 3380,
      "#0x2^9": 3381,
      "fsub.s": 3382,
      "zmm27{k4}": 3383,
      "cmpsd.repe": 3384,
      "ymm27{k3}{z}": 3385,
      "movntdqa": 3386,
      "xmm11{k2}{z}": 3387,
      "csrr": 3388,
      "xsha1.rep": 3389,
      "sminp": 3390,
      "v14.h[0x6]": 3391,
      "sshr": 3392,
      "v31.h[0x6]": 3393,
      "z1.b": 3394,
      "ld2d": 3395,
      "z7.h[0x0]": 3396,
      "zmm17{k4}": 3397,
      "vdivsd": 3398,
      "z26.h[0x0]": 3399,
      "v29.b[0xe]": 3400,
      "fcvt.lu.s": 3401,
      "zmm5{k1}": 3402,
      "v21.d": 3403,
      "ymm24{k3}": 3404,
      "vle16.v": 3405,
      "ymm4{k3}{z}": 3406,
      "dyn": 3407,
      "v9.2d": 3408,
      "z7.s[0x0]": 3409,
      "z27.h[0x0]": 3410,
      "0x2^2": 3411,
      "insd": 3412,
      "p14/z": 3413,
      "v22.b[0x7]": 3414,
      "psraw": 3415,
      "vpermq": 3416,
      "pause": 3417,
      "vfnmadd132pd": 3418,
      "pldl1keep": 3419,
      "v21.2d": 3420,
      "{k2}": 3421,
      "ymm16{k2}": 3422,
      "int1": 3423,
      "w0": 3424,
      "hlt": 3425,
      "x26!": 3426,
      "uaddw": 3427,
      "x1!": 3428,
      "v15.8h": 3429,
      "v23.b[0x0]": 3430,
      "unpckhpd": 3431,
      "sm3ss1": 3432,
      "v20.h[0x7]": 3433,
      "vpor": 3434,
      "eq": 3435,
      "xmm5{k6}{z}": 3436,
      "ymm16{k1}{z}": 3437,
      "ymm19{k3}{z}": 3438,
      "zmm6{k5}{z}": 3439,
      "xmm11{k3}{z}": 3440,
      "ymm22{k4}": 3441,
      "p6/z": 3442,
      "v19.s": 3443,
      "rsi": 3444,
      "v14.h": 3445,
      "z16.d[0x0]": 3446,
      "v17.8h": 3447,
      "zmm24{k1}": 3448,
      "v31.b[0x2]": 3449,
      "p7/z": 3450,
      "p11/m": 3451,
      "and": 3452,
      "v2.d[0x1]": 3453,
      "zmm8{k7}{z}": 3454,
      "blsi": 3455,
      "v17.b[0x6]": 3456,
      "sqshlu": 3457,
      "#-0x2^20": 3458,
      "vbroadcastsd": 3459,
      "lr.d.aq": 3460,
      "eon": 3461,
      "v7.h[0x1]": 3462,
      "ymm10{k3}": 3463,
      "v23.s[0x0]": 3464,
      "v25.d[0x0]": 3465,
      "paddsb": 3466,
      "verw": 3467,
      "rdtsc": 3468,
      "z24.q": 3469,
      "#0x2^29": 3470,
      "v19.s[0x2]": 3471,
      "v4.h[0x3]": 3472,
      "ymm15{k2}": 3473,
      "addsubpd": 3474,
      "sqxtun2": 3475,
      "wait": 3476,
      "rdsspq": 3477,
      "zmm31{k4}{z}": 3478,
      "zmm19": 3479,
      "z10.d": 3480,
      "psignd": 3481,
      "sm3tt2a": 3482,
      "w23": 3483,
      "v15.d[0x1]": 3484,
      "v25.h[0x7]": 3485,
      "v9.b[0x0]": 3486,
      "xmm17{k7}{z}": 3487,
      "zmm0{k5}": 3488,
      "v30.b[0x7]": 3489,
      "v12.h[0x0]": 3490,
      "vmv.v.x": 3491,
      "v15.b[0x3]": 3492,
      "double": 3493,
      "v23.h[0x3]": 3494,
      "#-0x2^28": 3495,
      "aesdeclast": 3496,
      "v3.b[0xb]": 3497,
      "ymm9{k3}{z}": 3498,
      "zmm7{k7}": 3499,
      "ssubw2": 3500,
      "-0x2^2e": 3501,
      "v21.s[0x2]": 3502,
      "xmm18{k3}{z}": 3503,
      "ymm17{k3}{z}": 3504,
      "fmul": 3505,
      "v11": 3506,
      "zmm13{k7}{z}": 3507,
      "ja": 3508,
      "cpy": 3509,
      "c.fsd": 3510,
      "v4.s[0x1]": 3511,
      "casl": 3512,
      "r11w": 3513,
      "vzeroall": 3514,
      "xmm4{k3}{z}": 3515,
      "0x2^a": 3516,
      "#0x2^15": 3517,
      "v4.h[0x2]": 3518,
      "v23.b[0x7]": 3519,
      "vpshufbitqmb": 3520,
      "v26.h[0x6]": 3521,
      "mulsd": 3522,
      "p8/z": 3523,
      "v31.1d": 3524,
      "v29.b[0xa]": 3525,
      "v3.2d": 3526,
      "zmm22{k2}{z}": 3527,
      "ands": 3528,
      "movsb.rep": 3529,
      "v28.16b": 3530,
      "vpaddsb": 3531,
      "x17!": 3532,
      "vmovhps": 3533,
      "v12.b": 3534,
      "movhlps": 3535,
      "fstenv": 3536,
      "fcvtns": 3537,
      "xend": 3538,
      "b26": 3539,
      "rcl": 3540,
      "zmm11{k6}": 3541,
      "v18.s[0x2]": 3542,
      "csrw": 3543,
      "uhsub": 3544,
      "v19.h": 3545,
      "-0x2^26": 3546,
      "v29.b[0x7]": 3547,
      "z25.d[0x0]": 3548,
      "uabdl2": 3549,
      "fabs.s": 3550,
      "zmm26{k2}{z}": 3551,
      "v24.h[0x6]": 3552,
      "z29.d[0x0]": 3553,
      "z25.b": 3554,
      "#-0x2^38": 3555,
      "zmm21{k6}{z}": 3556,
      "ymm6{k7}{z}": 3557,
      "ishst": 3558,
      "ymm2{k3}{z}": 3559,
      "ymm14": 3560,
      "v21.s": 3561,
      "gva": 3562,
      "#-0x2^17": 3563,
      "v29.d[0x1]": 3564,
      "vhaddpd": 3565,
      "addw": 3566,
      "0x2^31": 3567,
      "movdqu": 3568,
      "0x2^3d": 3569,
      "vfmaddsub132pd": 3570,
      "amoadd.w.aqrl": 3571,
      "xmm22{k5}{z}": 3572,
      "z30.d[0x0]": 3573,
      "movsd.rep": 3574,
      "v15.h[0x7]": 3575,
      "fadd.d": 3576,
      "zmm12{k5}": 3577,
      "rcr": 3578,
      "0x2^5": 3579,
      "pmaddubsw": 3580,
      "sqshrn": 3581,
      "v12.1d": 3582,
      "dc": 3583,
      "zmm22{k2}": 3584,
      "xorpd": 3585,
      "vcmpngtsd": 3586,
      "uxth": 3587,
      "s20": 3588,
      "ymm16{k1}": 3589,
      "pextrw": 3590,
      "s28": 3591,
      "q8": 3592,
      "zmm30{k1}{z}": 3593,
      "pandn": 3594,
      "z5.d[0x1]": 3595,
      "movntq": 3596,
      "uaddlv": 3597,
      "v31.h[0x7]": 3598,
      "v17.b[0x3]": 3599,
      "v24.h[0x3]": 3600,
      "z11.b": 3601,
      "st2w": 3602,
      "v9.s[0x3]": 3603,
      "vpcmpequq": 3604,
      "v15.d": 3605,
      "vmv.v.v": 3606,
      "zmm12{k4}{z}": 3607,
      "ymm19{k5}{z}": 3608,
      "zmm28": 3609,
      "0x2^37": 3610,
      "p6.h": 3611,
      "or.lock": 3612,
      "zmm15{k2}{z}": 3613,
      "v24.b[0x6]": 3614,
      "v20.b[0x7]": 3615,
      "csetm": 3616,
      "p11.d": 3617,
      "b15": 3618,
      "ymm21{k1}": 3619,
      "#0x2^12": 3620,
      "-0x2^c": 3621,
      "vl2": 3622,
      "pfpnacc": 3623,
      "vsetvli": 3624,
      "h20": 3625,
      "ldnp": 3626,
      "q24": 3627,
      "lbu": 3628,
      "pfsubr": 3629,
      "ymm17{k7}": 3630,
      "vpsllvw": 3631,
      "v31.s": 3632,
      "d17": 3633,
      "v31.8b": 3634,
      "v17.8b": 3635,
      "ymm2{k7}{z}": 3636,
      "movaps": 3637,
      "sabdl2": 3638,
      "amoand.d.aqrl": 3639,
      "v29.b[0xc]": 3640,
      "loopz": 3641,
      "ymm19{k5}": 3642,
      "d30": 3643,
      "ivau": 3644,
      "v20.b[0x4]": 3645,
      "vpcmpgtd": 3646,
      "phaddw": 3647,
      "xlat": 3648,
      "v19.s[0x0]": 3649,
      "xmm8{k4}{z}": 3650,
      "stosq.rep": 3651,
      "xmm8{k5}{z}": 3652,
      "s19": 3653,
      "v15.b[0x4]": 3654,
      "cmpneqsd": 3655,
      "vfmsub132ps": 3656,
      "zmm1{k1}{z}": 3657,
      "v27.s[0x2]": 3658,
      "#-0x2^2e": 3659,
      "lb": 3660,
      "v18.4h": 3661,
      "stosw": 3662,
      "xmm8{k6}": 3663,
      "ptest": 3664,
      "v11.b[0x6]": 3665,
      "v12.s[0x2]": 3666,
      "9": 3667,
      "vfmadd213ss": 3668,
      "z0.h": 3669,
      "xmm7{k5}": 3670,
      "orpd": 3671,
      "vmovdqu32": 3672,
      "xmm6{k1}": 3673,
      "amoswap.w.aqrl": 3674,
      "vpsubusw": 3675,
      "#0x1.0p+1": 3676,
      "v13.h[0x3]": 3677,
      "v15.2s": 3678,
      "vpminub": 3679,
      "v3.8h": 3680,
      "ymm14{k1}": 3681,
      "z27.q[0x0]": 3682,
      "fmsub": 3683,
      "fminnm": 3684,
      "pclmullqlqdq": 3685,
      "zmm15{k1}": 3686,
      "v13.16b": 3687,
      "ymm11{k7}{z}": 3688,
      "ldursw": 3689,
      "v30.d[1]": 3690,
      "v4.b[0x6]": 3691,
      "-0x2^10": 3692,
      "ymm14{k2}": 3693,
      "s7": 3694,
      "ymm26{k1}": 3695,
      "xmm7": 3696,
      "vpmaxub": 3697,
      "z21.h": 3698,
      "shadd": 3699,
      "v16.b[0x1]": 3700,
      "ymm15{k2}{z}": 3701,
      "vshufi64x2": 3702,
      "xmm18{k6}{z}": 3703,
      "vscatterqpd": 3704,
      "xmm17{k1}{z}": 3705,
      "v15.b": 3706,
      "v14.b[0x1]": 3707,
      "vfmaddsub213pd": 3708,
      "v31.b[0x8]": 3709,
      "v0.h[0x7]": 3710,
      "d13": 3711,
      "sri": 3712,
      "zmm5{k3}": 3713,
      "zmm30{k1}": 3714,
      "vpinsrd": 3715,
      "psubw": 3716,
      "ymm7{k2}{z}": 3717,
      "zmm12{k3}{z}": 3718,
      "vextracti32x8": 3719,
      "#-0x2^37": 3720,
      "v28.b[0x8]": 3721,
      "vpermpd": 3722,
      "sha1su0": 3723,
      "ymm20{k3}": 3724,
      "fxam": 3725,
      "phaddsw": 3726,
      "fle.d": 3727,
      "vpmaxuw": 3728,
      "zmm14{k5}{z}": 3729,
      "zmm9{k1}{z}": 3730,
      "cpym": 3731,
      "v14.b[0x6]": 3732,
      "ktestq": 3733,
      "tbz": 3734,
      "ld1sw": 3735,
      "z19": 3736,
      "z19.b": 3737,
      "ymm29{k4}{z}": 3738,
      "zmm18{k5}{z}": 3739,
      "packsswb": 3740,
      "v27.s": 3741,
      "pcmpgtd": 3742,
      "v3.d[1]": 3743,
      "fa4": 3744,
      "11": 3745,
      "v9.4h": 3746,
      "v28.h": 3747,
      "v14.h[0x5]": 3748,
      "fcmovne": 3749,
      "x13": 3750,
      "#0x2^1a": 3751,
      "cvtss2sd": 3752,
      "vpsubd": 3753,
      "v14.d[0x1]": 3754,
      "sxtl2": 3755,
      "vfmadd132pd": 3756,
      "zmm16{k6}{z}": 3757,
      "v0.b[0x9]": 3758,
      "uunpklo": 3759,
      "xmm2": 3760,
      "v28.d[0x1]": 3761,
      "ne": 3762,
      "ldseta": 3763,
      "z18.s": 3764,
      "zmm8{k3}{z}": 3765,
      "vpcmpnleud": 3766,
      "0x2^2e": 3767,
      "v29.h[0x4]": 3768,
      "fmulp": 3769,
      "-0x2^2": 3770,
      "ymm22{k6}": 3771,
      "#0xd": 3772,
      "smaxp": 3773,
      "zmm22{k5}{z}": 3774,
      "zmm19{k1}{z}": 3775,
      "zmm10{k5}{z}": 3776,
      "exit": 3777,
      "xmm28": 3778,
      "r4": 3779,
      "vmovdqu64": 3780,
      "vextracti128": 3781,
      "vblendvpd": 3782,
      "vpmullw": 3783,
      "ymm24{k6}": 3784,
      "p13.h": 3785,
      "p8.s": 3786,
      "v13.s[0x2]": 3787,
      "z7.s[0x1]": 3788,
      "ymm24{k7}": 3789,
      "v25.1d": 3790,
      "fcvt.lu.d": 3791,
      "zmm13{k5}{z}": 3792,
      "fpatan": 3793,
      "vsll.vi": 3794,
      "remuw": 3795,
      "#0x2^8": 3796,
      "vpmovzxbq": 3797,
      "vcvttsd2si": 3798,
      "v26.h": 3799,
      "sha1su1": 3800,
      "cvtdq2ps": 3801,
      "q21": 3802,
      "zmm10{k3}": 3803,
      "fs": 3804,
      "ymm22{k4}{z}": 3805,
      "v9.b": 3806,
      "vpcmpnltub": 3807,
      "z16": 3808,
      "c.li": 3809,
      "v14.16b": 3810,
      "pldl3keep": 3811,
      "v6.s": 3812,
      "xmm22{k3}{z}": 3813,
      "v12.2d": 3814,
      "pshufd": 3815,
      "xmm2{k7}{z}": 3816,
      "vfmsub213sd": 3817,
      "p0/m": 3818,
      "#0x2^1b": 3819,
      "b7": 3820,
      "xmm8{k7}{z}": 3821,
      "feq.d": 3822,
      "zmm24{k4}{z}": 3823,
      "zmm19{k6}": 3824,
      "vaesdeclast": 3825,
      "vpunpckldq": 3826,
      "vse16.v": 3827,
      "z0.d": 3828,
      "v29": 3829,
      "cmpnltss": 3830,
      "v27.8h": 3831,
      "scvtf": 3832,
      "v23.d[1]": 3833,
      "xmm23": 3834,
      "xsave": 3835,
      "v5.b[0x4]": 3836,
      "subps": 3837,
      "xmm4{k1}": 3838,
      "v0.b": 3839,
      "bic": 3840,
      "x18!": 3841,
      "v19.h[0x3]": 3842,
      "zmm13{k5}": 3843,
      "xmm13": 3844,
      "movups": 3845,
      "v27.b[0x7]": 3846,
      "v23.b": 3847,
      "vbroadcastf64x4": 3848,
      "p8.b": 3849,
      "vwaddu.vv": 3850,
      "z9.d[0x0]": 3851,
      "v12.d[0x1]": 3852,
      "vcmpordss": 3853,
      "xmm5{k1}{z}": 3854,
      "w20": 3855,
      "v26.4h": 3856,
      "xmm2{k4}{z}": 3857,
      "z3.q[0x0]": 3858,
      "zmm11{k4}{z}": 3859,
      "zmm11{k1}{z}": 3860,
      "v22.h[0x1]": 3861,
      "kortestd": 3862,
      "xmm8{k1}{z}": 3863,
      "v24.1q": 3864,
      "v30.1d": 3865,
      "v18.8b": 3866,
      "#0": 3867,
      "adr": 3868,
      "vsetvl": 3869,
      "vpmovsxwd": 3870,
      "zmm20{k2}{z}": 3871,
      "z5.s[0x0]": 3872,
      "v2.h[0x0]": 3873,
      "st4d": 3874,
      "p12": 3875,
      "#-0x2^34": 3876,
      "v25.h[0x5]": 3877,
      "zmm16{k4}{z}": 3878,
      "-0x2^e": 3879,
      "mpsadbw": 3880,
      "z7.s": 3881,
      "mv": 3882,
      "v29.b[0xd]": 3883,
      "zmm20{k3}{z}": 3884,
      "midr_el1": 3885,
      "jgt": 3886,
      "fabd": 3887,
      "q3": 3888,
      "ldr": 3889,
      "index": 3890,
      "7": 3891,
      "mulps": 3892,
      "vextractf64x4": 3893,
      "za": 3894,
      "v18.h": 3895,
      "vmsltu.vv": 3896,
      "#0x2^20": 3897,
      "ubfx": 3898,
      "v3.s[0x1]": 3899,
      "#-0x2^39": 3900,
      "vfmsub132pd": 3901,
      "fcvtps": 3902,
      "v6.b[0x3]": 3903,
      "sha1nexte": 3904,
      "packuswb": 3905,
      "bfcvtn": 3906,
      "por": 3907,
      "shufpd": 3908,
      "z18.h": 3909,
      "z27.h": 3910,
      "vcmpltss": 3911,
      "v19.8h": 3912,
      "vpmovm2d": 3913,
      "p13/z": 3914,
      "v0.s[0x2]": 3915,
      "v7.s[0x1]": 3916,
      "#-0x2^35": 3917,
      "v21.4h": 3918,
      "vextractps": 3919,
      "ymm0{k6}": 3920,
      "x5!": 3921,
      "ymm20{k1}{z}": 3922,
      "frintx": 3923,
      "vpclmullqlqdq": 3924,
      "xmm3{k3}{z}": 3925,
      "vbroadcastf32x2": 3926,
      "add.lock": 3927,
      "c.beqz": 3928,
      "zmm25{k1}": 3929,
      "ymm17{k1}{z}": 3930,
      "q15": 3931,
      "z20.b": 3932,
      "sturb": 3933,
      "v5.4h": 3934,
      "vpmulhrsw": 3935,
      "v18.d[0x1]": 3936,
      "ymm21{k6}": 3937,
      "remw": 3938,
      "z28.q": 3939,
      "zmm2{k5}": 3940,
      "zmm25{k3}": 3941,
      "v29.h[0x1]": 3942,
      "0x2^21": 3943,
      "asrd": 3944,
      "z18": 3945,
      "st3b": 3946,
      "x19!": 3947,
      "vpblendmb": 3948,
      "vmovdqu16": 3949,
      "vpermt2w": 3950,
      "fchs": 3951,
      "v7.h[0x6]": 3952,
      "zmm30{k4}": 3953,
      "v31.s[0x2]": 3954,
      "#-0x2^a": 3955,
      "v14.s[0x0]": 3956,
      "v27.b[0xc]": 3957,
      "ft6": 3958,
      "vcvtqq2ps": 3959,
      "v5.h[0x0]": 3960,
      "xmm30{k5}{z}": 3961,
      "-0x2^17": 3962,
      "ld2b": 3963,
      "facge": 3964,
      "zmm29": 3965,
      "xmm9{k4}{z}": 3966,
      "vpcmpnleuq": 3967,
      "v29.2d": 3968,
      "v23.d": 3969,
      "z13.b": 3970,
      "divpd": 3971,
      "zmm1{k6}": 3972,
      "ymm3{k7}{z}": 3973,
      "lt": 3974,
      "v6.8b": 3975,
      "kunpckdq": 3976,
      "zmm20": 3977,
      "v31.b[0xf]": 3978,
      "xmm30{k2}{z}": 3979,
      "cvtsd2si": 3980,
      "vaddps": 3981,
      "p6.b": 3982,
      "x18": 3983,
      "xmm2{k3}": 3984,
      "sd": 3985,
      "v26.2d": 3986,
      "v30.b": 3987,
      "v10.s[0x2]": 3988,
      "q30": 3989,
      "rcpps": 3990,
      "vpgatherdd": 3991,
      "v2.b[0x5]": 3992,
      "v30.b[0x1]": 3993,
      "autib1716": 3994,
      "ymm8{k1}": 3995,
      "cnth": 3996,
      "v4.4h": 3997,
      "c.fldsp": 3998,
      "bts.lock": 3999,
      "ymm21{k7}": 4000,
      "v11.h[0x0]": 4001,
      "ymm4{k6}{z}": 4002,
      "z18.b": 4003,
      "z30.s": 4004,
      "v1.h[0x4]": 4005,
      "vpclmullqhqdq": 4006,
      "zmm3{k1}{z}": 4007,
      "vfmadd231pd": 4008,
      "ymm18{k4}": 4009,
      "pminud": 4010,
      "zmm10{k1}": 4011,
      "vcvtdq2pd": 4012,
      "vextracti64x4": 4013,
      "v24.d[0x1]": 4014,
      "v25.b[0x7]": 4015,
      "fmv.d": 4016,
      "v18.h[0x2]": 4017,
      "xmm20{k4}": 4018,
      "crc32h": 4019,
      "vpmovzxdq": 4020,
      "v28.h[0x2]": 4021,
      "c.fsdsp": 4022,
      "vpermi2q": 4023,
      "p12.d": 4024,
      "#-0x2^36": 4025,
      "zmm26{k4}{z}": 4026,
      "t2": 4027,
      "v8.1d": 4028,
      "jnp": 4029,
      "fsd": 4030,
      "v25.b[0x6]": 4031,
      "scasd": 4032,
      "xmm28{k4}{z}": 4033,
      "bti": 4034,
      "vfnmadd231sd": 4035,
      "fcmove": 4036,
      "xmm1{k6}": 4037,
      "jalr": 4038,
      "v17.d[1]": 4039,
      "vfmsub231ss": 4040,
      "v26.h[0x4]": 4041,
      "z7.d[0x0]": 4042,
      "vbroadcastf32x8": 4043,
      "-0x2^1c": 4044,
      "vpabsd": 4045,
      "zmm17{k2}": 4046,
      "xmm18{k3}": 4047,
      "v13.h[0x2]": 4048,
      "zmm19{k7}": 4049,
      "xmm27": 4050,
      "p8.h": 4051,
      "v1.h": 4052,
      "kandnb": 4053,
      "v5.2s": 4054,
      "v13.2d": 4055,
      "vmovntdq": 4056,
      "ymm14{k6}": 4057,
      "aesd": 4058,
      "stlurb": 4059,
      "z24.h": 4060,
      "ymm18{k3}{z}": 4061,
      "lea": 4062,
      "xmm18{k1}{z}": 4063,
      "zmm9{k4}": 4064,
      "cmovno": 4065,
      "clc": 4066,
      "xmm30{k2}": 4067,
      "z3.s": 4068,
      "zmm11{k5}": 4069,
      "z23.h": 4070,
      "q12": 4071,
      "z27": 4072,
      "v15.s": 4073,
      "#90": 4074,
      "lr.w.aq": 4075,
      "z0.d[0x0]": 4076,
      "ymm27{k7}": 4077,
      "outsb": 4078,
      "umax": 4079,
      "pfalse": 4080,
      "vpermt2b": 4081,
      "vcmpgtsd": 4082,
      "xmm14{k1}": 4083,
      "q9": 4084,
      "lastb": 4085,
      "p9": 4086,
      "zmm22{k1}": 4087,
      "ymm17{k6}{z}": 4088,
      "v9.s[0x2]": 4089,
      "ymm13{k5}{z}": 4090,
      "cmge": 4091,
      "fnstsw": 4092,
      "z16.h": 4093,
      "kshiftlw": 4094,
      "h30": 4095,
      "3": 4096,
      "z18.q": 4097,
      "q25": 4098,
      "zmm7{k3}{z}": 4099,
      "vl1": 4100,
      "bx": 4101,
      "ds": 4102,
      "v3.b": 4103,
      "fscale": 4104,
      "xmm22{k2}{z}": 4105,
      "v16.b[0x8]": 4106,
      "#0x2^2c": 4107,
      "p13": 4108,
      "kandw": 4109,
      "ymm24{k7}{z}": 4110,
      "xmm31": 4111,
      "v16.b[0x2]": 4112,
      "psubb": 4113,
      "z26.d[0x0]": 4114,
      "-0x2^9": 4115,
      "v25.s[0x3]": 4116,
      "sli": 4117,
      "pext": 4118,
      "vpermi2b": 4119,
      "vpaddw": 4120,
      "psignw": 4121,
      "zmm4{k7}{z}": 4122,
      "v0.d[1]": 4123,
      "extended": 4124,
      "ymm25{k3}{z}": 4125,
      "z26": 4126,
      "zmm1{k5}{z}": 4127,
      "vcmpleps": 4128,
      "v3.b[0x1]": 4129,
      "x25": 4130,
      "sub.lock": 4131,
      "ge": 4132,
      "xmm9{k1}{z}": 4133,
      "d26": 4134,
      "cmplesd": 4135,
      "zmm19{k4}{z}": 4136,
      "vunpcklpd": 4137,
      "fcmlt": 4138,
      "vpaddusw": 4139,
      "packssdw": 4140,
      "v21.h[0x1]": 4141,
      "psrld": 4142,
      "xmm1{k5}{z}": 4143,
      "x8!": 4144,
      "v20.h[0x5]": 4145,
      "cmovs": 4146,
      "ymm7{k5}": 4147,
      "v1.d[0x0]": 4148,
      "vmovddup": 4149,
      "b24": 4150,
      "rdx": 4151,
      "0x2^27": 4152,
      "zmm13{k7}": 4153,
      "kshiftrd": 4154,
      "v13.8b": 4155,
      "fcvtas": 4156,
      "zmm3{k2}": 4157,
      "v29.b[0x8]": 4158,
      "amoadd.d": 4159,
      "ymm11{k4}": 4160,
      "z31.s": 4161,
      "v26.s[0x3]": 4162,
      "v4.d": 4163,
      "vpsubsb": 4164,
      "z22.q[0x0]": 4165,
      "ymm15{k4}{z}": 4166,
      "c.addiw": 4167,
      "z27.s": 4168,
      "zmm31{k7}": 4169,
      "xmm24": 4170,
      "v30.h[0x3]": 4171,
      "sqrtsd": 4172,
      "0x2^1e": 4173,
      "zmm30{k3}{z}": 4174,
      "vpcmpgtq": 4175,
      "v0.h": 4176,
      "ymm17{k3}": 4177,
      "rol": 4178,
      "b25": 4179,
      "zmm31{k1}": 4180,
      "ymm2{k1}": 4181,
      "v20.h[0x4]": 4182,
      "zmm28{k5}{z}": 4183,
      "d23": 4184,
      "mm0": 4185,
      "fldpi": 4186,
      "zmm19{k7}{z}": 4187,
      "st7": 4188,
      "addss": 4189,
      "uqdecb": 4190,
      "vadd.vi": 4191,
      "v30.8b": 4192,
      "vmovsd": 4193,
      "xmm30{k3}": 4194,
      "v15.s[0x1]": 4195,
      "zmm3{k6}": 4196,
      "vminsd": 4197,
      "pldl2keep": 4198,
      "zmm6{k1}{z}": 4199,
      "c.sw": 4200,
      "a5": 4201,
      "v19.4s": 4202,
      "v12.1q": 4203,
      "#0x2^f": 4204,
      "v30.h[0x7]": 4205,
      "q13": 4206,
      "vsqrtps": 4207,
      "z16.s[0x0]": 4208,
      "v20.h[0x3]": 4209,
      "z6.s": 4210,
      "zmm29{k2}": 4211,
      "fcmpe": 4212,
      "z26.s[0x0]": 4213,
      "[": 4214,
      "pmovsxwd": 4215,
      "vpcmpgtw": 4216,
      "zmm22{k4}": 4217,
      "z28.q[0x0]": 4218,
      "v19.b[0x0]": 4219,
      "c.addi16sp": 4220,
      "z20.q[0x0]": 4221,
      "d25": 4222,
      "xmm4{k6}{z}": 4223,
      "v27.s[0x0]": 4224,
      "v4.h[0x1]": 4225,
      "v25.s[0x2]": 4226,
      "vpsubb": 4227,
      "#8": 4228,
      "zmm25{k1}{z}": 4229,
      "vcvtsi2sd": 4230,
      "v15.h[0x2]": 4231,
      "0x2^3b": 4232,
      "shll": 4233,
      "lddw": 4234,
      "0x2^1a": 4235,
      "ymm20{k2}{z}": 4236,
      "z24.q[0x0]": 4237,
      "ymm16{k6}": 4238,
      "zmm26{k6}{z}": 4239,
      "v24.h[0x7]": 4240,
      "v0.2s": 4241,
      "z7.b": 4242,
      "v25.b[0x0]": 4243,
      "movsq": 4244,
      "h0": 4245,
      "0x2^d": 4246,
      "addiw": 4247,
      "ebp": 4248,
      "v21.b[0x2]": 4249,
      "zmm21{k4}": 4250,
      "ymm21{k7}{z}": 4251,
      "v10.d[0x1]": 4252,
      "zmm27{k6}": 4253,
      "xmm18{k4}{z}": 4254,
      "vpmultishiftqb": 4255,
      "ymm4{k3}": 4256,
      "xmm2{k6}{z}": 4257,
      "vmovlps": 4258,
      "v13.d[1]": 4259,
      "v29.h[0x6]": 4260,
      "gs": 4261,
      "idiv": 4262,
      "ldaxrb": 4263,
      "0x2^9": 4264,
      "ld1d": 4265,
      "v21.h[0x4]": 4266,
      "femms": 4267,
      "smulh": 4268,
      "0x2^e": 4269,
      "xmm21{k7}": 4270,
      "spl": 4271,
      "vinsertf128": 4272,
      "pmovsxdq": 4273,
      "pmulhw": 4274,
      "ymm9{k2}{z}": 4275,
      "ymm9": 4276,
      "zmm15{k5}{z}": 4277,
      "prfm": 4278,
      "c.jr": 4279,
      "vextractf128": 4280,
      "v0.s": 4281,
      "cpyfp": 4282,
      "kxnord": 4283,
      "dil": 4284,
      "z14.d": 4285,
      "cmpnltpd": 4286,
      "v0.d[0x1]": 4287,
      "kaddb": 4288,
      "rev": 4289,
      "v26.d": 4290,
      "v21.4s": 4291,
      "v16.d[0x1]": 4292,
      "#-0x2^30": 4293,
      "vl": 4294,
      "sxtw": 4295,
      "xmm9{k3}{z}": 4296,
      "cmpnltsd": 4297,
      "comiss": 4298,
      "fnclex": 4299,
      "v23.h[0x1]": 4300,
      "xmm19{k1}{z}": 4301,
      "btr.lock": 4302,
      "beq": 4303,
      "v18.b[0x7]": 4304,
      "q5": 4305,
      "xmm0{k2}": 4306,
      "#-0x2^22": 4307,
      "zmm0{k5}{z}": 4308,
      "v28.s": 4309,
      "x24": 4310,
      "v28.b[0x3]": 4311,
      "umaddl": 4312,
      "p3/m": 4313,
      "r12": 4314,
      "crc32": 4315,
      "0x2^12": 4316,
      "v27.s[0x1]": 4317,
      "xmm3{k5}{z}": 4318,
      "xmm11{k4}": 4319,
      "zmm23{k1}": 4320,
      "zmm8{k4}{z}": 4321,
      "xmm16{k1}": 4322,
      "xmm12{k6}{z}": 4323,
      "w8": 4324,
      "vptestmd": 4325,
      "andi": 4326,
      "v18.2s": 4327,
      "subs": 4328,
      "ymm23{k6}": 4329,
      "v29.4h": 4330,
      "-0x2^29": 4331,
      "-0x2^3": 4332,
      "divsd": 4333,
      "vpunpcklbw": 4334,
      "v29.s[0x1]": 4335,
      "ymm13{k2}": 4336,
      "ymm15{k6}{z}": 4337,
      "v4.h[0x4]": 4338,
      "vsqrtsd": 4339,
      "ymm25{k5}{z}": 4340,
      "vcmpnltpd": 4341,
      "z4.h[0x0]": 4342,
      "wfe": 4343,
      "zmm3{k3}": 4344,
      "ymm1{k6}": 4345,
      "{k3}": 4346,
      "zmm13{k2}{z}": 4347,
      "vfmsubadd132ps": 4348,
      "z23.q[0x0]": 4349,
      "vcvttps2qq": 4350,
      "bgeu": 4351,
      "xmm0{k7}{z}": 4352,
      "ymm1{k4}": 4353,
      "ymm22{k1}{z}": 4354,
      "h9": 4355,
      "ymm8{k3}": 4356,
      "zmm25{k4}": 4357,
      "xmm15{k2}": 4358,
      "v22.16b": 4359,
      "b10": 4360,
      "zmm14{k1}": 4361,
      "vpaddusb": 4362,
      "v24.2d": 4363,
      "ymm6{k2}": 4364,
      "xadd": 4365,
      "v20.8h": 4366,
      "vcmpless": 4367,
      "x23": 4368,
      "bpl": 4369,
      "cmpeqpd": 4370,
      "v28.b[0x7]": 4371,
      "pshuflw": 4372,
      "ymm9{k3}": 4373,
      "ymm5{k2}{z}": 4374,
      "shrd": 4375,
      "vpsllw": 4376,
      "ymm11{k1}{z}": 4377,
      "zmm30{k7}": 4378,
      "sahf": 4379,
      "minu": 4380,
      "v6.s[0x3]": 4381,
      "zmm19{k5}": 4382,
      "xmm8{k4}": 4383,
      "mulhu": 4384,
      "zmm25": 4385,
      "{k1}": 4386,
      "sha1msg1": 4387,
      "vpshufd": 4388,
      "c.or": 4389,
      "zmm23{k5}{z}": 4390,
      "fcmovb": 4391,
      "st3h": 4392,
      "xmm23{k1}": 4393,
      "fsubrp": 4394,
      "v25.1q": 4395,
      "bts": 4396,
      "v29.d[0x0]": 4397,
      "pmovsxbw": 4398,
      "vfmadd213pd": 4399,
      "shll2": 4400,
      "vpcmplew": 4401,
      "b0": 4402,
      "ymm8{k7}{z}": 4403,
      "cmovl": 4404,
      "addhn2": 4405,
      "#0x2^3e": 4406,
      "vaddsubps": 4407,
      "v18.d[1]": 4408,
      "ymm19{k2}": 4409,
      "v7.b[0x0]": 4410,
      "v6.h[0x0]": 4411,
      "tbl": 4412,
      "movntdq": 4413,
      "v31.b[0xc]": 4414,
      "v5.s[0x0]": 4415,
      "-0x2^3e": 4416,
      "vpcmpnled": 4417,
      "v17.b[0x0]": 4418,
      "xmm6{k5}{z}": 4419,
      "-0x2^12": 4420,
      "v19.2d": 4421,
      "zmm6{k3}": 4422,
      "ext": 4423,
      "ymm5{k3}": 4424,
      "vpcompressq": 4425,
      "v25.2s": 4426,
      "umsubl": 4427,
      "vshuff32x4": 4428,
      "v30.h": 4429,
      "v2.8h": 4430,
      "ymm19{k1}": 4431,
      "zmm22": 4432,
      "cmpneqss": 4433,
      "fmls": 4434,
      "v19.b[0x5]": 4435,
      "v11.s[0x2]": 4436,
      "ymm13{k4}": 4437,
      "stlurh": 4438,
      "xmm30{k4}{z}": 4439,
      "movsb": 4440,
      "v5.s[0x1]": 4441,
      "fist": 4442,
      "v24.4h": 4443,
      "v1.4h": 4444,
      "zmm5{k1}{z}": 4445,
      "v14.h[0x1]": 4446,
      "xmm12{k1}{z}": 4447,
      "cvttps2dq": 4448,
      "bfcvtn2": 4449,
      "gt": 4450,
      "inc.lock": 4451,
      "vpminuq": 4452,
      "z18.q[0x0]": 4453,
      "zmm8{k4}": 4454,
      "umaxp": 4455,
      "v30.8h": 4456,
      "v10.8b": 4457,
      "0x2^24": 4458,
      "vfmadd213sd": 4459,
      "zmm15": 4460,
      "w9": 4461,
      "zmm21{k7}": 4462,
      "fnstenv": 4463,
      "zmm29{k7}{z}": 4464,
      "vpsrlw": 4465,
      "pinsrd": 4466,
      "edx": 4467,
      "vaesenclast": 4468,
      "saddlp": 4469,
      "w5": 4470,
      "v2.b[0x2]": 4471,
      "p4/m": 4472,
      "ssra": 4473,
      "v30.h[0x2]": 4474,
      "ymm3{k7}": 4475,
      "zmm30{k6}": 4476,
      "v22.b[0x8]": 4477,
      "vunpcklps": 4478,
      "ymm26{k5}{z}": 4479,
      "v2.d": 4480,
      "zmm8{k1}": 4481,
      "v17.1d": 4482,
      "}": 4483,
      "vcmpngtpd": 4484,
      "v27.b[0x1]": 4485,
      "vwaddu.wv": 4486,
      "z30.q[0x0]": 4487,
      "fmv.d.x": 4488,
      "fcvtms": 4489,
      "mm1": 4490,
      "z15": 4491,
      "-0x2^d": 4492,
      "c.swsp": 4493,
      "zmm10{k6}{z}": 4494,
      "z12": 4495,
      "v3.h[0x2]": 4496,
      "0x2^20": 4497,
      "cmpxchg8b.lock": 4498,
      "v27.d[0x1]": 4499,
      "h3": 4500,
      "p4": 4501,
      "v25.4h": 4502,
      "p5": 4503,
      "vcmpunordss": 4504,
      "v6.2s": 4505,
      "vshuff64x2": 4506,
      "v3.b[0xe]": 4507,
      "v30.16b": 4508,
      "v8.h": 4509,
      "fld": 4510,
      "v30": 4511,
      "pmulhrsw": 4512,
      "#-0x2^1f": 4513,
      "lahf": 4514,
      "v4.h[0x6]": 4515,
      "vminpd": 4516,
      "v28.b": 4517,
      "ymm16": 4518,
      "v27.h[0x2]": 4519,
      "ishld": 4520,
      "eax": 4521,
      "#-0xb": 4522,
      "v13.d[0x0]": 4523,
      "v13.b[0x0]": 4524,
      "xmm19{k6}{z}": 4525,
      "zmm16{k1}{z}": 4526,
      "xmm9{k4}": 4527,
      "ymm4{k5}{z}": 4528,
      "addsd": 4529,
      "vpsadbw": 4530,
      "vpscatterqq": 4531,
      "q16": 4532,
      "vpmovdw": 4533,
      "v19.s[0x1]": 4534,
      "inch": 4535,
      "vcmpnltsd": 4536,
      "v3.h[0x3]": 4537,
      "xmm7{k2}": 4538,
      "xmm14{k7}": 4539,
      "gzva": 4540,
      "q23": 4541,
      "zmm18{k7}": 4542,
      "vcmpnless": 4543,
      "z5.d": 4544,
      "uabdl": 4545,
      "p11/z": 4546,
      "#0x2^7": 4547,
      "lr.d": 4548,
      "btr": 4549,
      "ld2w": 4550,
      "v11.2s": 4551,
      "v7.1q": 4552,
      "c.sd": 4553,
      "zmm10{k2}": 4554,
      "v29.b[0x1]": 4555,
      "z20.d[0x0]": 4556,
      "zmm19{k3}": 4557,
      "v14": 4558,
      "strh": 4559,
      "korb": 4560,
      "xmm16{k3}": 4561,
      "z4.s": 4562,
      "ymm10": 4563,
      "negs": 4564,
      "xmm3{k7}": 4565,
      "vcmpgtps": 4566,
      "br": 4567,
      "v5.b[0x1]": 4568,
      "psubsw": 4569,
      "ymm26{k3}{z}": 4570,
      "vaesimc": 4571,
      "fcomi": 4572,
      "d19": 4573,
      "v4.d[0x0]": 4574,
      "v20.4s": 4575,
      "#-0x2^15": 4576,
      "v25.2d": 4577,
      "vpcmpnltb": 4578,
      "uaddlp": 4579,
      "zmm0{k7}": 4580,
      "v0.b[0xd]": 4581,
      "ymm23{k5}": 4582,
      "xmm6{k1}{z}": 4583,
      "c0x2": 4584,
      "ymm22": 4585,
      "h10": 4586,
      "v10.d[1]": 4587,
      "aesimc": 4588,
      "b3": 4589,
      "ld1b": 4590,
      "sha1m": 4591,
      "movsldup": 4592,
      "v1.b[0x3]": 4593,
      "w7": 4594,
      "sel": 4595,
      "vpmovm2w": 4596,
      "vbroadcasti32x4": 4597,
      "vpacksswb": 4598,
      "ld1rw": 4599,
      "xmm20{k1}": 4600,
      "ldarb": 4601,
      "ymm12{k5}{z}": 4602,
      "pinsrq": 4603,
      "xmm23{k1}{z}": 4604,
      "v15.b[0x0]": 4605,
      "sbb": 4606,
      "d7": 4607,
      "maxsd": 4608,
      "addhn": 4609,
      "v10.h[0x3]": 4610,
      "movsxd": 4611,
      "uzp2": 4612,
      "bl": 4613,
      "p3.h": 4614,
      "v1.b": 4615,
      "v26.1d": 4616,
      "v8.s[0x3]": 4617,
      "zmm28{k2}": 4618,
      "vpcmpeqw": 4619,
      "xmm26{k4}{z}": 4620,
      "ymm10{k4}{z}": 4621,
      "0x2^8": 4622,
      "pavgusb": 4623,
      "v28.b[0x6]": 4624,
      "haddps": 4625,
      "xmm19{k7}{z}": 4626,
      "v1.b[0x8]": 4627,
      "v28.b[0xb]": 4628,
      "uxtb": 4629,
      "p5/z": 4630,
      "v7.s[0x3]": 4631,
      "ymm25{k1}{z}": 4632,
      "vpcmpnlew": 4633,
      "bc.cc": 4634,
      "smsubl": 4635,
      "unpcklpd": 4636,
      "z28.b": 4637,
      "xmm1": 4638,
      "ymm20{k5}": 4639,
      "xmm0{k5}": 4640,
      "xmm8{k3}": 4641,
      "v5.8h": 4642,
      "ymm4{k1}": 4643,
      "xmm18{k2}{z}": 4644,
      "v9.s[0x0]": 4645,
      "#-0x2^3e": 4646,
      "vpmovswb": 4647,
      "s13": 4648,
      "xmm2{k3}{z}": 4649,
      "vrndscaless": 4650,
      "v2.16b": 4651,
      "ldpsw": 4652,
      "ymm10{k4}": 4653,
      "vsmul.vx": 4654,
      "-0x2^f": 4655,
      "xmm6{k2}": 4656,
      "pdep": 4657,
      "v6.2d": 4658,
      "vid.v": 4659,
      "cl": 4660,
      "v4.s[0x3]": 4661,
      "v13": 4662,
      "z22.s": 4663,
      "q28": 4664,
      "vmulps": 4665,
      "vmax.vx": 4666,
      "v24.b[0x3]": 4667,
      "autia1716": 4668,
      "v0.b[0x7]": 4669,
      "blendps": 4670,
      "ymm31{k7}": 4671,
      "h7": 4672,
      "0x2^3c": 4673,
      "xmm19{k2}{z}": 4674,
      "trn1": 4675,
      "xmm2{k1}{z}": 4676,
      "#0x2^e": 4677,
      "uqrshrn": 4678,
      "zmm30{k2}{z}": 4679,
      "pinsrw": 4680,
      "ld4d": 4681,
      "zmm23{k7}": 4682,
      "aesenc": 4683,
      "zmm3{k7}{z}": 4684,
      "24": 4685,
      "jc": 4686,
      "v3.s[0x2]": 4687,
      "pushfd": 4688,
      "vpmovmskb": 4689,
      "ymm9{k1}{z}": 4690,
      "v18.2d": 4691,
      "blendvps": 4692,
      "r6": 4693,
      "bt": 4694,
      "slti": 4695,
      "lzcnt": 4696,
      "sqshl": 4697,
      "#0x2^18": 4698,
      "rax1": 4699,
      "b.ls": 4700,
      "cvtsi2sd": 4701,
      "v31.d[0x0]": 4702,
      "xmm19": 4703,
      "setpm": 4704,
      "fcvtn2": 4705,
      "v2.b[0x9]": 4706,
      "vpermw": 4707,
      "cvtdq2pd": 4708,
      "-0x2^1b": 4709,
      "zmm27{k4}{z}": 4710,
      "adcx": 4711,
      "xmm21{k2}{z}": 4712,
      "v1.h[0x5]": 4713,
      "v3": 4714,
      "z14": 4715,
      "ch": 4716,
      "k3": 4717,
      "cmpge": 4718,
      "v15": 4719,
      "z9": 4720,
      "ymm21{k3}": 4721,
      "v10.h[0x2]": 4722,
      "v8.8b": 4723,
      "ymm9{k1}": 4724,
      "d24": 4725,
      "amoadd.w.rl": 4726,
      "zmm18{k1}{z}": 4727,
      "z28.s": 4728,
      "z0": 4729,
      "v20.b[0x0]": 4730,
      "vcmplesd": 4731,
      "r15b": 4732,
      "tword": 4733,
      "pfmul": 4734,
      "v31.b[0xe]": 4735,
      "z6.d[0x0]": 4736,
      "sm4ekey": 4737,
      "vmin.vx": 4738,
      "zmm0{k4}{z}": 4739,
      "p13.b": 4740,
      "vroundss": 4741,
      "xmm8{k3}{z}": 4742,
      "z23.q": 4743,
      "zmm7{k5}": 4744,
      "lwu": 4745,
      "vinserti64x2": 4746,
      "ld1rb": 4747,
      "ymm13{k4}{z}": 4748,
      "c.bnez": 4749,
      "ymm9{k4}{z}": 4750,
      "pfadd": 4751,
      "crc32w": 4752,
      "xmm17{k4}": 4753,
      "z15.s[0x0]": 4754,
      "v22.h[0x0]": 4755,
      "x25!": 4756,
      "valignd": 4757,
      "v11.d[1]": 4758,
      "v31.1q": 4759,
      "zmm17{k5}": 4760,
      "fcvt.s.l": 4761,
      "vl8": 4762,
      "vpaddsw": 4763,
      "st2d": 4764,
      "ebreak": 4765,
      "ymm20{k6}{z}": 4766,
      "v30.h[0x1]": 4767,
      "vfnmadd231pd": 4768,
      "ymm2{k5}": 4769,
      "movhpd": 4770,
      "ymm19{k7}{z}": 4771,
      "v0.8b": 4772,
      "xmm14{k4}": 4773,
      "v31.h[0x4]": 4774,
      "v8.2s": 4775,
      "p2.s": 4776,
      "h22": 4777,
      "-0x2^2a": 4778,
      "cmpless": 4779,
      "zmm17{k7}": 4780,
      "ebx": 4781,
      "v24.b[0x1]": 4782,
      "psrad": 4783,
      "stnp": 4784,
      "pfacc": 4785,
      "zmm25{k2}": 4786,
      "v17.b[0x7]": 4787,
      "vpmovzxwq": 4788,
      "v10.1d": 4789,
      "v16.b[0xc]": 4790,
      "cpyp": 4791,
      "z26.q[0x0]": 4792,
      "v22.b[0x9]": 4793,
      "ymm6{k6}{z}": 4794,
      "cmovp": 4795,
      "bltu": 4796,
      "fld1": 4797,
      "xzr": 4798,
      "d1": 4799,
      "ldadd": 4800,
      "xmm21{k1}{z}": 4801,
      "z14.b": 4802,
      "ymm6{k4}{z}": 4803,
      "ymm24{k2}": 4804,
      "v31.b[0x5]": 4805,
      "pminsd": 4806,
      "zmm24{k2}{z}": 4807,
      "pshufb": 4808,
      "xmm11{k5}{z}": 4809,
      "#-0x2^2a": 4810,
      "movsq.rep": 4811,
      "p7": 4812,
      "ymm1{k2}": 4813,
      "jle": 4814,
      "z13.h": 4815,
      "ymm18{k7}": 4816,
      "v0.8h": 4817,
      "z15.h[0x0]": 4818,
      "v15.2d": 4819,
      "ymm23{k2}": 4820,
      "fcmla": 4821,
      "st4b": 4822,
      "v27.b[0x4]": 4823,
      "v26.b[0x7]": 4824,
      "v15.b[0x5]": 4825,
      "usubl2": 4826,
      "vfmsubadd213ps": 4827,
      "zmm9{k6}{z}": 4828,
      "xmm5{k4}{z}": 4829,
      "v18.b[0x5]": 4830,
      "subw": 4831,
      "amoand.w.rl": 4832,
      "0x2^1c": 4833,
      "ra": 4834,
      "z5.s[0x3]": 4835,
      "al": 4836,
      "pcmpeqb": 4837,
      "lhu": 4838,
      "ymm2{k4}": 4839,
      "zmm0{k3}": 4840,
      "vpshrdd": 4841,
      "xmm10{k1}{z}": 4842,
      "sunpklo": 4843,
      "r15d": 4844,
      "ymm13{k1}{z}": 4845,
      "z28.h": 4846,
      "v13.b[0x3]": 4847,
      "fsub.d": 4848,
      "v5.d[0x0]": 4849,
      "vpcmpnltd": 4850,
      "v26.b[0x5]": 4851,
      "h16": 4852,
      "v7.d[0x1]": 4853,
      "sevl": 4854,
      "-0x2^19": 4855,
      "s2": 4856,
      "uaba": 4857,
      "r1": 4858,
      "amoxor.d.rl": 4859,
      "#0x4": 4860,
      "c.sub": 4861,
      "zmm6{k7}{z}": 4862,
      "v0.b[0x1]": 4863,
      "#0x6": 4864,
      "vpcmpltub": 4865,
      "v15.16b": 4866,
      "v24.h[0x2]": 4867,
      "fnmsub": 4868,
      "vpsraq": 4869,
      "isb": 4870,
      "pop": 4871,
      "r14b": 4872,
      "ymm20{k4}": 4873,
      "vmovdqa32": 4874,
      "inc": 4875,
      "zmm14{k2}": 4876,
      "#0x2^35": 4877,
      "v19.d[1]": 4878,
      "v4.2d": 4879,
      "r13b": 4880,
      "ah": 4881,
      "v31.8h": 4882,
      "v13.4s": 4883,
      "ymm19{k6}": 4884,
      "addp": 4885,
      "zmm11{k3}": 4886,
      "cmpltpd": 4887,
      "smaddl": 4888,
      "zmm9{k7}": 4889,
      "r15w": 4890,
      "v17.h[0x3]": 4891,
      "v4.s[0x0]": 4892,
      "ymm3{k6}": 4893,
      "v16.16b": 4894,
      "0x2^36": 4895,
      "d4": 4896,
      "cvtps2pd": 4897,
      "#0x2^17": 4898,
      "comisd": 4899,
      "z11": 4900,
      "ymm3{k5}": 4901,
      "vmovups": 4902,
      "amoswap.d.aq": 4903,
      "zmm31{k6}": 4904,
      "15": 4905,
      "c0x4": 4906,
      "fisub": 4907,
      "vptestmq": 4908,
      "v23.d[0x0]": 4909,
      "vfmsub231pd": 4910,
      "v7.2d": 4911,
      "v13.s[0x1]": 4912,
      "fcvt.wu.d": 4913,
      "ymm1{k7}": 4914,
      "subhn": 4915,
      "#-0x1.0p+0": 4916,
      "addvl": 4917,
      "x12!": 4918,
      "zmm31{k1}{z}": 4919,
      "zmm15{k6}{z}": 4920,
      "xmm23{k3}{z}": 4921,
      "neg": 4922,
      "vfmsub132sd": 4923,
      "zmm12": 4924,
      "z31.h[0x0]": 4925,
      "zmm21{k4}{z}": 4926,
      "fstp": 4927,
      "xmm23{k4}": 4928,
      "kandnw": 4929,
      "{k7}": 4930,
      "ymm18{k7}{z}": 4931,
      "z2.q[0x0]": 4932,
      "zmm25{k4}{z}": 4933,
      "z29.h": 4934,
      "ymm7{k4}": 4935,
      "v16.b[0xe]": 4936,
      "v30.d": 4937,
      "v30.2s": 4938,
      "v2.h[0x1]": 4939,
      "movlps": 4940,
      "frndint": 4941,
      "fxch": 4942,
      "frintp": 4943,
      "stlur": 4944,
      "v26.b[0x3]": 4945,
      "v2.8b": 4946,
      "xmm16{k7}{z}": 4947,
      "v26.1q": 4948,
      "pclmullqhqdq": 4949,
      "zmm7{k2}": 4950,
      "xmm0{k3}": 4951,
      "ymm10{k3}{z}": 4952,
      "zmm1{k7}{z}": 4953,
      "z12.s[0x0]": 4954,
      "uaddv": 4955,
      "fmaxnmv": 4956,
      "z16.b": 4957,
      "zmmword_ptr": 4958,
      "v31.h[0x2]": 4959,
      "pand": 4960,
      "v9.d[0x1]": 4961,
      "xmm26{k1}": 4962,
      "zmm6{k7}": 4963,
      "cmpps": 4964,
      "vfmsubadd231pd": 4965,
      "ymm23{k7}": 4966,
      "fmv.s": 4967,
      "v22.4h": 4968,
      "vcmpgepd": 4969,
      "usqadd": 4970,
      "zmm24{k6}": 4971,
      "vfmsubadd132pd": 4972,
      "bsl": 4973,
      "vpsravw": 4974,
      "es:edi": 4975,
      "zmm16{k6}": 4976,
      "mm5": 4977,
      "v4.b[0x0]": 4978,
      "ymm3{k2}": 4979,
      "v28": 4980,
      "v18.h[0x1]": 4981,
      "yield": 4982,
      "v27.s[0x3]": 4983,
      "ymm17{k4}": 4984,
      "divss": 4985,
      "h17": 4986,
      "ldxb": 4987,
      "vphminposuw": 4988,
      "v28.d[0x0]": 4989,
      "phaddd": 4990,
      "v29.d": 4991,
      "mvn": 4992,
      "vmovntdqa": 4993,
      "v18.b[0x3]": 4994,
      "zmm0{k2}": 4995,
      "v5.b[0x0]": 4996,
      "r11": 4997,
      "x7!": 4998,
      "#0xc": 4999,
      "fcvt.d.s": 5000,
      "v8.8h": 5001,
      "xor": 5002,
      "sshll": 5003,
      "rsubhn2": 5004,
      "call": 5005,
      "vsubsd": 5006,
      "v7.4s": 5007,
      "nor": 5008,
      "v12.s[0x1]": 5009,
      "xmm5{k3}": 5010,
      "-0x2^36": 5011,
      "v21.d[0x1]": 5012,
      "xmm11{k4}{z}": 5013,
      "v27.b": 5014,
      "fnmadd.s": 5015,
      "z19.q[0x0]": 5016,
      "v7.d": 5017,
      "x16": 5018,
      "ymm19{k2}{z}": 5019,
      "v11.1q": 5020,
      "v29.h[0x0]": 5021,
      "str": 5022,
      "v11.b[0x4]": 5023,
      "ld2": 5024,
      "setl": 5025,
      "q20": 5026,
      "c.subw": 5027,
      "vzeroupper": 5028,
      "v11.4h": 5029,
      "v30.b[0x0]": 5030,
      "v20.h": 5031,
      "jrcxz": 5032,
      "andpd": 5033,
      "z13.q[0x0]": 5034,
      "v9.h[0x0]": 5035,
      "usubw": 5036,
      "d5": 5037,
      "ymm16{k5}": 5038,
      "zmm7{k6}{z}": 5039,
      "vmovapd": 5040,
      "zmm6{k5}": 5041,
      "v18.s[0x1]": 5042,
      "ymm12{k2}": 5043,
      "-0x2^6": 5044,
      "0x2^23": 5045,
      "v30.d[0x1]": 5046,
      "zmm15{k3}{z}": 5047,
      "v19.b[0x3]": 5048,
      "fmaxv": 5049,
      "v29.h[0x3]": 5050,
      "fidivr": 5051,
      "v12.d[0x0]": 5052,
      "0x2^f": 5053,
      "v29.s[0x2]": 5054,
      "v19.h[0x1]": 5055,
      "#0x0": 5056,
      "vblendps": 5057,
      "xmm0{k7}": 5058,
      "amoor.w.aq": 5059,
      "ymm7": 5060,
      "-0x2^1d": 5061,
      "mul": 5062,
      "ymm9{k2}": 5063,
      "b27": 5064,
      "xmm4{k3}": 5065,
      "vor.vv": 5066,
      "v19.b[0x6]": 5067,
      "pxor": 5068,
      "cmova": 5069,
      "fucomi": 5070,
      "fnmls": 5071,
      "z24.d[0x0]": 5072,
      "v14.2d": 5073,
      "uabal": 5074,
      "z1.q": 5075,
      "v6.s[0x1]": 5076,
      "zmm5{k6}": 5077,
      "v19.d[0x0]": 5078,
      "v2.b[0x0]": 5079,
      "#-0x2^4": 5080,
      "kortestb": 5081,
      "vpackssdw": 5082,
      "v26.h[0x3]": 5083,
      "ccmp": 5084,
      "v18.s": 5085,
      "ld3r": 5086,
      "uabal2": 5087,
      "v0.b[0x2]": 5088,
      "d3": 5089,
      "b.ne": 5090,
      "movdqa": 5091,
      "punpckhwd": 5092,
      "cvtpd2ps": 5093,
      "z6": 5094,
      "z30.h[0x0]": 5095,
      "xmm3{k3}": 5096,
      "punpckldq": 5097,
      "z19.d[0x0]": 5098,
      "vcvttpd2uqq": 5099,
      "stxw": 5100,
      "v21.b[0x7]": 5101,
      "ymm9{k4}": 5102,
      "b4": 5103,
      "p6.s": 5104,
      "zmm21{k2}": 5105,
      "sha512h": 5106,
      "ymm14{k1}{z}": 5107,
      "ymm15{k1}{z}": 5108,
      "v12.d[1]": 5109,
      "vcvtusi2ss": 5110,
      "v26.b[0x8]": 5111,
      "shlx": 5112,
      "ldp": 5113,
      "v16.s[0x3]": 5114,
      "cvau": 5115,
      "z28.h[0x0]": 5116,
      "v25.h[0x3]": 5117,
      "xmm1{k3}": 5118,
      "a2": 5119,
      "movprfx": 5120,
      "vzext.vf2": 5121,
      "csel": 5122,
      "clastb": 5123,
      "zmm26{k3}{z}": 5124,
      "xmm10{k7}{z}": 5125,
      "cmplt": 5126,
      "cmp": 5127,
      "#-0x2^24": 5128,
      "z22.h": 5129,
      "0x2^2a": 5130,
      "z10.s[0x0]": 5131,
      "zmm0": 5132,
      "smull": 5133,
      "v18.b[0x0]": 5134,
      "vunpckhpd": 5135,
      "pmaddwd": 5136,
      "ld1": 5137,
      "punpcklbw": 5138,
      "zmm7": 5139,
      "v29.2s": 5140,
      "v3.16b": 5141,
      "r8d": 5142,
      "frflags": 5143,
      "ymm18{k2}{z}": 5144,
      "vpscatterdd": 5145,
      "v19.h[0x2]": 5146,
      "bif": 5147,
      "b8": 5148,
      "xmm6{k4}{z}": 5149,
      "v14.h[0x2]": 5150,
      "v6.h": 5151,
      "jnc": 5152,
      "#0x2^24": 5153,
      "zmm18{k3}": 5154,
      "dmb": 5155,
      "cmpeqps": 5156,
      "v9.2s": 5157,
      "vpextrd": 5158,
      "fdivrp": 5159,
      "ymm4{k7}": 5160,
      "zmm14{k4}{z}": 5161,
      "v25.h[0x1]": 5162,
      "ymm11{k5}": 5163,
      "v7.h[0x3]": 5164,
      "vblendmpd": 5165,
      "mfence": 5166,
      "z15.h": 5167,
      "#0x2^22": 5168,
      "zmm16{k5}{z}": 5169,
      "v16": 5170,
      "v27.b[0x3]": 5171,
      "z21.d[0x0]": 5172,
      "v18.b[0x1]": 5173,
      "-0x2^24": 5174,
      "vpmovwb": 5175,
      "uqrshrn2": 5176,
      "v11.8b": 5177,
      "whilelo": 5178,
      "r14": 5179,
      "-0x2^30": 5180,
      "bfdot": 5181,
      "ymm26{k1}{z}": 5182,
      "v29.16b": 5183,
      "v2.h[0x6]": 5184,
      "#-0x9": 5185,
      "b6": 5186,
      "v8.s": 5187,
      "v22.8b": 5188,
      "p0": 5189,
      "xmm2{k2}": 5190,
      "v25.8b": 5191,
      "v24.16b": 5192,
      "xmm14{k2}": 5193,
      "xmm2{k4}": 5194,
      "adc": 5195,
      "v20.h[0x1]": 5196,
      "vsadd.vv": 5197,
      "ymm6{k3}": 5198,
      "wrssd": 5199,
      "v10.8h": 5200,
      "ymm10{k5}{z}": 5201,
      "v16.4h": 5202,
      "addsubps": 5203,
      "vpcmpnleub": 5204,
      "ldxrb": 5205,
      "andnps": 5206,
      "pavgw": 5207,
      "v16.1d": 5208,
      "stosd.rep": 5209,
      "zmm24{k7}{z}": 5210,
      "6": 5211,
      "v26.16b": 5212,
      "v21": 5213,
      "#12": 5214,
      "xmm16{k4}": 5215,
      "zmm23{k4}{z}": 5216,
      "z25.h": 5217,
      "seto": 5218,
      "-0x2^37": 5219,
      "v30.1q": 5220,
      "z29.h[0x0]": 5221,
      "v23.16b": 5222,
      "uqxtn": 5223,
      "cpyfm": 5224,
      "v3.b[0x7]": 5225,
      "ft3": 5226,
      "ymm6{k1}": 5227,
      "xmm5{k7}{z}": 5228,
      "v3.b[0x0]": 5229,
      "xmm1{k7}": 5230,
      "zmm19{k2}": 5231,
      "#-0x2^3d": 5232,
      "v7.b[0x1]": 5233,
      "kandq": 5234,
      "amoor.d": 5235,
      "-0x2^2c": 5236,
      "v2.d[1]": 5237,
      "z7.q[0x0]": 5238,
      "vl4": 5239,
      "fnstcw": 5240,
      "h4": 5241,
      "pclmulqdq": 5242,
      "xsha256.rep": 5243,
      "v2.1q": 5244,
      "ymm5{k6}": 5245,
      "cvttss2si": 5246,
      "v31.b[0xd]": 5247,
      "xmm31{k4}{z}": 5248,
      "msr": 5249,
      "ymm14{k4}": 5250,
      "-0x2^a": 5251,
      "xmm6{k3}": 5252,
      "v26.b[0xb]": 5253,
      "v1.b[0x5]": 5254,
      "z31.h": 5255,
      "zmm11{k5}{z}": 5256,
      "xmm7{k3}{z}": 5257,
      "ld3b": 5258,
      "fild": 5259,
      "v5.h[0x2]": 5260,
      "v23.1d": 5261,
      "blr": 5262,
      "fa2": 5263,
      "vcmpeq_ussd": 5264,
      "umulh": 5265,
      "kxorw": 5266,
      "mov": 5267,
      "v1.1q": 5268,
      "xmm15{k7}": 5269,
      "xmm9{k5}{z}": 5270,
      "zmm31{k2}{z}": 5271,
      "zmm0{k6}{z}": 5272,
      "xmm7{k7}": 5273,
      "v26.8b": 5274,
      "vfnmsub132ss": 5275,
      "vaadd.vv": 5276,
      "vprorq": 5277,
      "subr": 5278,
      "#0x2^1d": 5279,
      "b.vc": 5280,
      "v8.s[0x1]": 5281,
      "v15.1d": 5282,
      "v21.b[0x0]": 5283,
      "vextracti32x4": 5284,
      "c.addi4spn": 5285,
      "r9": 5286,
      "v17.s[0x1]": 5287,
      "zmm17{k7}{z}": 5288,
      "z19.s[0x0]": 5289,
      "xmm16{k1}{z}": 5290,
      "v16.h[0x1]": 5291,
      "int3": 5292,
      "xmm16{k6}{z}": 5293,
      "psubq": 5294,
      "zmm18": 5295,
      "cntw": 5296,
      "#0x2^34": 5297,
      "sqrtpd": 5298,
      "a6": 5299,
      "xmm9{k1}": 5300,
      "xmm10{k1}": 5301,
      "t6": 5302,
      "xmm0{k2}{z}": 5303,
      "xmm7{k4}": 5304,
      "vcomiss": 5305,
      "pmuludq": 5306,
      "zmm3{k1}": 5307,
      "vpcmpequb": 5308,
      "v5.1d": 5309,
      "kshiftrb": 5310,
      "fmax.d": 5311,
      "10": 5312,
      "pminsw": 5313,
      "ymm14{k6}{z}": 5314,
      "pblendw": 5315,
      "p14.s": 5316,
      "v20.2d": 5317,
      "ymm11{k1}": 5318,
      "vlddqu": 5319,
      "vpsllvq": 5320,
      "v18.b[0x4]": 5321,
      "fflags": 5322,
      "z16.q[0x0]": 5323,
      "z31.d[0x0]": 5324,
      "sreg(0x3": 5325,
      "sha256su0": 5326,
      "xmm20{k6}{z}": 5327,
      "smnegl": 5328,
      "sllw": 5329,
      "p11": 5330,
      "zmm12{k2}": 5331,
      "v7.2s": 5332,
      "ymm2{k5}{z}": 5333,
      "xmm19{k4}": 5334,
      "t1": 5335,
      "vpmovqb": 5336,
      "v16.b[0xb]": 5337,
      "z6.s[0x2]": 5338,
      "cdq": 5339,
      "xmm8{k1}": 5340,
      "ymm15{k7}{z}": 5341,
      "sha512h2": 5342,
      "s4": 5343,
      "#-0x2^32": 5344,
      "xmm17": 5345,
      "fa6": 5346,
      "fcvtl2": 5347,
      "vpsignw": 5348,
      "x9": 5349,
      "psrlw": 5350,
      "vcmpeqss": 5351,
      "vpmovzxwd": 5352,
      "ymm18": 5353,
      "umull": 5354,
      "zmm23{k6}{z}": 5355,
      "xmm5{k7}": 5356,
      "ymm4{k2}": 5357,
      "v9.8b": 5358,
      "vfmsub213ss": 5359,
      "p9/z": 5360,
      "zmm10{k7}{z}": 5361,
      "sqneg": 5362,
      "zmm30{k7}{z}": 5363,
      "decw": 5364,
      "vwredsum.vs": 5365,
      "ymm1{k5}{z}": 5366,
      "z7.s[0x2]": 5367,
      "z5.q[0x0]": 5368,
      "gmi": 5369,
      "z7": 5370,
      "frecpe": 5371,
      "w13": 5372,
      "v25.4s": 5373,
      "0x2^38": 5374,
      "ldeor": 5375,
      "eor": 5376,
      "punpklo": 5377,
      "v27.h[0x7]": 5378,
      "v13.8h": 5379,
      "v14.s[0x1]": 5380,
      "lslr": 5381,
      "cmpnless": 5382,
      "v16.s[0x2]": 5383,
      "z23.s[0x0]": 5384,
      "knotd": 5385,
      "punpckhqdq": 5386,
      "0x2^14": 5387,
      "zmm15{k5}": 5388,
      "xmm12{k4}": 5389,
      "v18.4s": 5390,
      "#-0x2^10": 5391,
      "kxnorq": 5392,
      "v10.16b": 5393,
      "v30.b[0x3]": 5394,
      "v30.b[0x9]": 5395,
      "ssubl2": 5396,
      "vbroadcasti128": 5397,
      "fmax": 5398,
      "zmm8{k6}": 5399,
      "vbroadcastf128": 5400,
      "vpcmpltw": 5401,
      "cmpnleps": 5402,
      "fmv.w.x": 5403,
      "vcvtph2ps": 5404,
      "ldaddlh": 5405,
      "v21.8b": 5406,
      "v24.h": 5407,
      "zmm16{k2}": 5408,
      "sdivr": 5409,
      "p14/m": 5410,
      "p12.b": 5411,
      "sqrshrn2": 5412,
      "vcvttss2si": 5413,
      "v18.b": 5414,
      "slt": 5415,
      "ctz": 5416,
      "vcvtsd2ss": 5417,
      "v1.8b": 5418,
      "fs6": 5419,
      "amoswap.d": 5420,
      "vfmsub132ss": 5421,
      "13": 5422,
      "fcvtzu": 5423,
      "maxps": 5424,
      "vmslt.vx": 5425,
      "fsqrt.s": 5426,
      "usdot": 5427,
      "ymm3{k2}{z}": 5428,
      "vcmpnltss": 5429,
      "ld2h": 5430,
      "paddw": 5431,
      "v27": 5432,
      "v2.s[0x1]": 5433,
      "zmm18{k5}": 5434,
      "v0.h[0x5]": 5435,
      "bics": 5436,
      "v6.4s": 5437,
      "raddhn2": 5438,
      "cmovle": 5439,
      "lodsd": 5440,
      "v12.4s": 5441,
      "z5.b": 5442,
      "xcryptctr.rep": 5443,
      "x8": 5444,
      "vmovdqa64": 5445,
      "paddusw": 5446,
      "fs5": 5447,
      "v22.b[0xf]": 5448,
      "zmm24{k3}{z}": 5449,
      "lh": 5450,
      "sqrshrun2": 5451,
      "v23.h[0x2]": 5452,
      "v31.16b": 5453,
      "ic": 5454,
      "xmm23{k7}": 5455,
      "ushr": 5456,
      "v0.d[0x0]": 5457,
      "z13.d": 5458,
      "uaddw2": 5459,
      "x20": 5460,
      "vmovlpd": 5461,
      "vse8.v": 5462,
      "v17.4h": 5463,
      "cmphi": 5464,
      "v22.b[0x4]": 5465,
      "vfmaddsub231pd": 5466,
      "zmm6{k4}{z}": 5467,
      "v15.8b": 5468,
      "v27.h[0x6]": 5469,
      "#-0x2^1b": 5470,
      "vl3": 5471,
      "v5.b[0x2]": 5472,
      "v31": 5473,
      "#-0x2^12": 5474,
      "v20.2s": 5475,
      "v10.s[0x0]": 5476,
      "vmovd": 5477,
      "0x2^29": 5478,
      "w11": 5479,
      "vpmaxud": 5480,
      "fminv": 5481,
      "ymm17{k1}": 5482,
      "zmm11": 5483,
      "xmm10{k6}": 5484,
      "xmm14{k5}{z}": 5485,
      "ymm8{k6}": 5486,
      "sfence": 5487,
      "sbfx": 5488,
      "v7.h[0x0]": 5489,
      "z29.b": 5490,
      "v7.16b": 5491,
      "0x2^32": 5492,
      "{k6}": 5493,
      "xmm15{k6}{z}": 5494,
      "ymm6{k6}": 5495,
      "vsrl.vi": 5496,
      "v14.s": 5497,
      "k2": 5498,
      "0": 5499,
      "-0x2^23": 5500,
      "v10": 5501,
      "ymm20": 5502,
      "vpopcntq": 5503,
      "zmm29{k1}": 5504,
      "c.ldsp": 5505,
      "vgatherdpd": 5506,
      "fneg.d": 5507,
      "dsb": 5508,
      "xmm4{k6}": 5509,
      "p14.h": 5510,
      "xmm3{k1}{z}": 5511,
      "cmpunordsd": 5512,
      "ymm4{k4}": 5513,
      "ft4": 5514,
      "fmla": 5515,
      "v21.b[0xf]": 5516,
      "vmaxps": 5517,
      "cmovz": 5518,
      "v24.2s": 5519,
      "z13.d[0x0]": 5520,
      "#0xa": 5521,
      "dec": 5522,
      "vlse32.v": 5523,
      "d2": 5524,
      "v26": 5525,
      "v28.b[0x0]": 5526,
      "ldrh": 5527,
      "zmm19{k1}": 5528,
      "srhadd": 5529,
      "z30.b": 5530,
      "mla": 5531,
      "pmaxuw": 5532,
      "cpuid": 5533,
      "v7.4h": 5534,
      "zmm5{k4}{z}": 5535,
      "frstor": 5536,
      "fisubr": 5537,
      "w15": 5538,
      "zmm3{k6}{z}": 5539,
      "sarx": 5540,
      "st3": 5541,
      "ldxr": 5542,
      "v2.b[0xc]": 5543,
      "sw": 5544,
      "v25.b[0x3]": 5545,
      "endbr32": 5546,
      "v28.b[0x9]": 5547,
      "sqxtn": 5548,
      "ymm11{k3}{z}": 5549,
      "xmm0{k1}{z}": 5550,
      "vpermi2ps": 5551,
      "vand.vi": 5552,
      "xmm15{k1}{z}": 5553,
      "v23.b[0xd]": 5554,
      "v24.s[0x0]": 5555,
      "#-0xe": 5556,
      "a1": 5557,
      "movupd": 5558,
      "vcmpngtps": 5559,
      "v3.4h": 5560,
      "v28.d[1]": 5561,
      "v19.b[0x7]": 5562,
      "zmm11{k1}": 5563,
      "bfmmla": 5564,
      "v21.h[0x2]": 5565,
      "vpermd": 5566,
      "vmovmskpd": 5567,
      "0x2^4": 5568,
      "xmm15{k7}{z}": 5569,
      "v13.b": 5570,
      "vinsertf64x2": 5571,
      "v1.d[1]": 5572,
      "v16.s[0x1]": 5573,
      "rorx": 5574,
      "v23.4s": 5575,
      "r9b": 5576,
      "zmm12{k3}": 5577,
      "vpminsq": 5578,
      "r13": 5579,
      "xmm12{k5}{z}": 5580,
      "v30.h[0x0]": 5581,
      "v28.b[0x4]": 5582,
      "uunpkhi": 5583,
      "ymm1{k1}{z}": 5584,
      "zmm16{k7}{z}": 5585,
      "ymm9{k7}": 5586,
      "cmeq": 5587,
      "divw": 5588,
      "ft8": 5589,
      "v10.4h": 5590,
      "0x2^30": 5591,
      "ymm13{k7}": 5592,
      "v3.b[0x3]": 5593,
      "r10w": 5594,
      "fsub": 5595,
      "v1.b[0xe]": 5596,
      "zmm4{k6}{z}": 5597,
      "v28.b[0xc]": 5598,
      "vptestnmd": 5599,
      "v11.s[0x0]": 5600,
      "amoadd.d.aq": 5601,
      "b17": 5602,
      "ymm5{k7}": 5603,
      "v8.s[0x2]": 5604,
      "-0x2^2f": 5605,
      "pmulhuw": 5606,
      "zmm4{k7}": 5607,
      "v23.s": 5608,
      "v22.1q": 5609,
      "v0.s[0x0]": 5610,
      "v16.b[0x7]": 5611,
      "p15.h": 5612,
      "xmm2{k2}{z}": 5613,
      "zmm13{k6}{z}": 5614,
      "#-0x3": 5615,
      "v4.b[0x3]": 5616,
      "zmm24{k3}": 5617,
      "v28.2d": 5618,
      "r9w": 5619,
      "bit": 5620,
      "sabd": 5621,
      "v6.b[0x0]": 5622,
      "w24": 5623,
      "vfmsubadd231ps": 5624,
      "0x2^3e": 5625,
      "mulx": 5626,
      "xmm1{k3}{z}": 5627,
      "v28.4s": 5628,
      "cmle": 5629,
      "ymmword_ptr": 5630,
      "xmm5": 5631,
      "w16": 5632,
      "xmm21{k1}": 5633,
      "vpackuswb": 5634,
      "mad": 5635,
      "p14": 5636,
      "v29.b[0x0]": 5637,
      "vorpd": 5638,
      "sqshrun2": 5639,
      "xmm6{k7}": 5640,
      "#0x2^32": 5641,
      "z27.s[0x0]": 5642,
      "v0.16b": 5643,
      "v15.d[1]": 5644,
      "xmm20{k4}{z}": 5645,
      "zmm6{k4}": 5646,
      "phminposuw": 5647,
      "stxrb": 5648,
      "frinti": 5649,
      "j": 5650,
      "ldursb": 5651,
      "b23": 5652,
      "fdup": 5653,
      "aesdec": 5654,
      "p1.d": 5655,
      "msb": 5656,
      "zmm25{k3}{z}": 5657,
      "vcmpneqps": 5658,
      "v5.h[0x4]": 5659,
      "v5.s": 5660,
      "b22": 5661,
      "v28.h[0x3]": 5662,
      "st2g": 5663,
      "p0/z": 5664,
      "amoswap.w.aq": 5665,
      "#0x2^3a": 5666,
      "sdot": 5667,
      "v31.b[0xa]": 5668,
      "zmm10{k2}{z}": 5669,
      "lddqu": 5670,
      "vpshldq": 5671,
      "xmm24{k4}{z}": 5672,
      "cmpltps": 5673,
      "ymm8{k7}": 5674,
      "xmm12{k7}": 5675,
      "fucomp": 5676,
      "r3": 5677,
      "z20.s[0x0]": 5678,
      "zmm9{k1}": 5679,
      "ymm8{k2}": 5680,
      "hint": 5681,
      "z29.s": 5682,
      "vpmaxsd": 5683,
      "ymm9{k6}": 5684,
      "zmm13": 5685,
      "ymm13": 5686,
      "fcvt.s.lu": 5687,
      "zmm26{k2}": 5688,
      "xmm30{k7}": 5689,
      "z30.h": 5690,
      "v0.b[0x6]": 5691,
      "stlrb": 5692,
      "v25.b[0x5]": 5693,
      "zmm2{k5}{z}": 5694,
      "#48": 5695,
      "#-0x7": 5696,
      "fa5": 5697,
      "zmm25{k5}": 5698,
      "z1": 5699,
      "swpab": 5700,
      "v6.1q": 5701,
      "v18.b[0x2]": 5702,
      "z20.h": 5703,
      "zmm8{k7}": 5704,
      "zmm13{k6}": 5705,
      "v13.s[0x0]": 5706,
      "xmm29{k5}": 5707,
      "fldenv": 5708,
      "v30.2d": 5709,
      "st4w": 5710,
      "v24.s[0x1]": 5711,
      "ymm11{k4}{z}": 5712,
      "-0x2^38": 5713,
      "z21": 5714,
      "z29.q": 5715,
      "#0x2^2b": 5716,
      "v17.d[0x1]": 5717,
      "li": 5718,
      "v23.b[0xc]": 5719,
      "vrndscalepd": 5720,
      "vpcmpnltw": 5721,
      "fmin.d": 5722,
      "v10.2s": 5723,
      "sqshrun": 5724,
      "pminub": 5725,
      "w25": 5726,
      "v19.b[0x4]": 5727,
      "zmm3{k4}": 5728,
      "z1.q[0x0]": 5729,
      "lw": 5730,
      "orr": 5731,
      "p3.d": 5732,
      "ymm0{k4}{z}": 5733,
      "v24": 5734,
      "ymm5{k5}{z}": 5735,
      "vfnmadd132ss": 5736,
      "kmovb": 5737,
      "h8": 5738,
      "xmm1{k6}{z}": 5739,
      "#0x8": 5740,
      "x12": 5741,
      "v5.2d": 5742,
      "setz": 5743,
      "amoand.w.aq": 5744,
      "ymm2{k2}{z}": 5745,
      "imul": 5746,
      "xmm23{k4}{z}": 5747,
      "ymm3{k4}{z}": 5748,
      "xmm5{k3}{z}": 5749,
      "srshr": 5750,
      "0x2^35": 5751,
      "c": 5752,
      "#-0x2^8": 5753,
      "rdtscp": 5754,
      "xmm30{k1}{z}": 5755,
      "vpmovb2m": 5756,
      "ud2": 5757,
      "z21.q[0x0]": 5758,
      "v2.b[0x6]": 5759,
      "v26.b[0x0]": 5760,
      "fcvt.s.d": 5761,
      "v25.16b": 5762,
      "xmm7{k6}": 5763,
      "urshr": 5764,
      "v7.d[0x0]": 5765,
      "zmm0{k3}{z}": 5766,
      "v26.b[0xe]": 5767,
      "v5.h[0x1]": 5768,
      "v28.b[0x1]": 5769,
      "sdiv": 5770,
      "v8.d": 5771,
      "v20.d[0x1]": 5772,
      "v24.8b": 5773,
      "zmm23": 5774,
      "fnmsb": 5775,
      "vpmovzxbd": 5776,
      "xmm14{k2}{z}": 5777,
      "v3.b[0xf]": 5778,
      "v4.b[0x5]": 5779,
      "v16.h": 5780,
      "v5.b[0x5]": 5781,
      "vxor.vv": 5782,
      "uabd": 5783,
      "ld1w": 5784,
      "pabsw": 5785,
      "v4.b[0x1]": 5786,
      "v5.b": 5787,
      "v25.h[0x4]": 5788,
      "frecps": 5789,
      "swpal": 5790,
      "xmm4{k4}": 5791,
      "xmm4{k5}{z}": 5792,
      "vbroadcasti64x2": 5793,
      "v28.s[0x3]": 5794,
      "setbe": 5795,
      "vpaddq": 5796,
      "v25.d": 5797,
      "vcmpeqpd": 5798,
      "d11": 5799,
      "le": 5800,
      "vpmaskmovd": 5801,
      "mrs": 5802,
      "v0.b[0xa]": 5803,
      "vpsrlvq": 5804,
      "ymm0{k7}{z}": 5805,
      "v15.b[0x7]": 5806,
      "v25.b[0x4]": 5807,
      "vpblendvb": 5808,
      "pshufw": 5809,
      "x6": 5810,
      "zmm7{k6}": 5811,
      "xmm7{k2}{z}": 5812,
      "v17.d": 5813,
      "#0xf": 5814,
      "b5": 5815,
      "v17.s[0x0]": 5816,
      "v9.s": 5817,
      "#-0x2^1a": 5818,
      "zmm3{k3}{z}": 5819,
      "fldz": 5820,
      "v1": 5821,
      "mneg": 5822,
      "zmm1{k4}{z}": 5823,
      "z16.d": 5824,
      "fcmovu": 5825,
      "c.mv": 5826,
      ")": 5827,
      "maxss": 5828,
      "d10": 5829,
      "v5.8b": 5830,
      "uhadd": 5831,
      "rsqrtss": 5832,
      "-0x2^32": 5833,
      "zmm1{k2}{z}": 5834,
      "v9.4s": 5835,
      "tbnz": 5836,
      "v16.8h": 5837,
      "b": 5838,
      "stlxr": 5839,
      "zmm13{k2}": 5840,
      "v21.1d": 5841,
      "ldursh": 5842,
      "enter": 5843,
      "v22.b[0xd]": 5844,
      "z5.q": 5845,
      "pstl1strm": 5846,
      "vmovshdup": 5847,
      "movddup": 5848,
      "ymm11{k7}": 5849,
      "z4.h[0x1]": 5850,
      "v27.4h": 5851,
      "vinsertf32x4": 5852,
      "setge": 5853,
      "fsgnj.d": 5854,
      "sqxtun": 5855,
      "v3.b[0x9]": 5856,
      "st1w": 5857,
      "v5.b[0x7]": 5858,
      "xmm25{k4}{z}": 5859,
      "v31.b[0x0]": 5860,
      "es": 5861,
      "w27": 5862,
      "ymm9{k6}{z}": 5863,
      "zmm21{k3}": 5864,
      "ymm18{k2}": 5865,
      "d31": 5866,
      "ymm6{k4}": 5867,
      "feq.s": 5868,
      "vwmul.vv": 5869,
      "ymm18{k1}{z}": 5870,
      "v5.h[0x7]": 5871,
      "v10.1q": 5872,
      "retf": 5873,
      "v0": 5874,
      "zmm24{k2}": 5875,
      "d22": 5876,
      "v24.h[0x5]": 5877,
      "xmm4{k7}": 5878,
      "v5.h": 5879,
      "vadd.vv": 5880,
      "movsx": 5881,
      "ymm0{k7}": 5882,
      "amoor.w.aqrl": 5883,
      "#-0x2^2c": 5884,
      "vssra.vi": 5885,
      "#-0x2^25": 5886,
      "syscall": 5887,
      "0x2^7": 5888,
      "zmm17{k2}{z}": 5889,
      "z30.d": 5890,
      "v2.h": 5891,
      "vpminud": 5892,
      "pcmpgtw": 5893,
      "v22.4s": 5894,
      "ymm20{k5}{z}": 5895,
      "ymm30{k5}{z}": 5896,
      "fldcw": 5897,
      "v23.b[0x8]": 5898,
      "jbe": 5899,
      "prefetchw": 5900,
      "v2.b[0x8]": 5901,
      "zmm22{k6}": 5902,
      "vmpsadbw": 5903,
      "v14.2s": 5904,
      "cmc": 5905,
      "adox": 5906,
      "xmm7{k3}": 5907,
      "zmm19{k4}": 5908,
      "orn": 5909,
      "-0x2^15": 5910,
      "p7/m": 5911,
      "p12.s": 5912,
      "s12": 5913,
      "v29.h[0x7]": 5914,
      "uxtl": 5915,
      "w1": 5916,
      "vwmulu.vx": 5917,
      "xmm15{k2}{z}": 5918,
      "xmm28{k7}": 5919,
      "z25.s[0x0]": 5920,
      "vroundps": 5921,
      "z3.s[0x0]": 5922,
      "#0x2^14": 5923,
      "vmovaps": 5924,
      "cmpneqpd": 5925,
      "vpcmpnltuq": 5926,
      "v1.b[0xb]": 5927,
      "s15": 5928,
      "v1.16b": 5929,
      "ld3": 5930,
      "xmm12{k4}{z}": 5931,
      "xmm7{k5}{z}": 5932,
      "umov": 5933,
      "p5.d": 5934,
      "uqadd": 5935,
      "v12.b[0x0]": 5936,
      "z3.s[0x1]": 5937,
      "v2.b[0xa]": 5938,
      "-0x2^8": 5939,
      "v28.8h": 5940,
      "v14.b[0x7]": 5941,
      "ymm19{k3}": 5942,
      "sltu": 5943,
      "v19": 5944,
      "x17": 5945,
      "xmm3{k1}": 5946,
      "cmpeqsd": 5947,
      "v22.b[0x1]": 5948,
      "v19.b": 5949,
      "d9": 5950,
      "pcmpgtq": 5951,
      "sha256su1": 5952,
      "ymm7{k6}{z}": 5953,
      "vscalefsd": 5954,
      "z3": 5955,
      "v1.b[0xd]": 5956,
      "zmm9{k3}": 5957,
      "ymm5{k1}{z}": 5958,
      "vxorps": 5959,
      "zmm25{k2}{z}": 5960,
      "ymm4{k6}": 5961,
      "v6.s[0x0]": 5962,
      "rdn": 5963,
      "vpmaddwd": 5964,
      "extractps": 5965,
      "revb": 5966,
      "v5.1q": 5967,
      "b.vs": 5968,
      "v7.b[0x7]": 5969,
      "ret": 5970,
      "pcmpistri": 5971,
      "zmm30{k2}": 5972,
      "h11": 5973,
      "v16.2d": 5974,
      "zmm31{k2}": 5975,
      "c.addi": 5976,
      "ymm0{k5}{z}": 5977,
      "s5": 5978,
      "ymm15{k3}{z}": 5979,
      "sturh": 5980,
      "v26.b[0xd]": 5981,
      "v29.s": 5982,
      "vmovdqu8": 5983,
      "z8.d[0x0]": 5984,
      "cmn": 5985,
      "cmhs": 5986,
      "p7.h": 5987,
      "0x2^22": 5988,
      "cneg": 5989,
      "v24.h[0x4]": 5990,
      "fdiv": 5991,
      "vl5": 5992,
      "zmm1{k4}": 5993,
      "cmovnp": 5994,
      "v29.b[0x3]": 5995,
      "vpcmpleuw": 5996,
      "vpsrld": 5997,
      "ymm31{k1}{z}": 5998,
      "fst": 5999,
      "-0x2^21": 6000,
      "vmand.mm": 6001,
      "0x2^c": 6002,
      "xmm16{k5}": 6003,
      "v23.2d": 6004,
      "vpcmpnltq": 6005,
      "h27": 6006,
      "decb": 6007,
      "r11b": 6008,
      "c.sdsp": 6009,
      "xmm7{k6}{z}": 6010,
      "v27.b[0x6]": 6011,
      "xmm5{k1}": 6012,
      "v23.b[0xb]": 6013,
      "v6.b[0x5]": 6014,
      "v8.4s": 6015,
      "zmm14{k2}{z}": 6016,
      "sm4e": 6017,
      "ymm6{k3}{z}": 6018,
      "w18": 6019,
      "vplzcntd": 6020,
      "v31.4h": 6021,
      "v31.d": 6022,
      "cmovc": 6023,
      "v4.b[0x4]": 6024,
      "fcvt.l.d": 6025,
      "v9.h[0x3]": 6026,
      "v27.4s": 6027,
      "z25.d": 6028,
      "p5.s": 6029,
      "v30.b[0xf]": 6030,
      "cmgt": 6031,
      "v4.s": 6032,
      "v19.16b": 6033,
      "w26": 6034,
      "zmm30{k3}": 6035,
      "x1": 6036,
      "v29.1d": 6037,
      "z6.b": 6038,
      "vcvtps2ph": 6039,
      "ymm1": 6040,
      "-0x2^3a": 6041,
      "vpclmulqdq": 6042,
      "vpmovm2b": 6043,
      "vaddss": 6044,
      "v23.b[0xf]": 6045,
      "v31.h[0x0]": 6046,
      "xmm15{k3}": 6047,
      "v1.h[0x1]": 6048,
      "zmm12{k1}": 6049,
      "ymm0{k2}{z}": 6050,
      "-0x2^20": 6051,
      "scasw.repe": 6052,
      "v3.b[0x4]": 6053,
      "vdivpd": 6054,
      "r8": 6055,
      "v8.4h": 6056,
      "vfnmadd132sd": 6057,
      "v6.s[0x2]": 6058,
      "ymm10{k7}{z}": 6059,
      "vgf2p8affineinvqb": 6060,
      "fstcw": 6061,
      "v26.b": 6062,
      "zmm2{k2}": 6063,
      "clmulh": 6064,
      "b.lt": 6065,
      "v6.16b": 6066,
      "#-0x2^9": 6067,
      "zmm3{k2}{z}": 6068,
      "vfnmadd213ps": 6069,
      "#0x2^33": 6070,
      "mi": 6071,
      "xmm19{k5}{z}": 6072,
      "ymm6": 6073,
      "v15.b[0x2]": 6074,
      "x4!": 6075,
      "v20.s[0x3]": 6076,
      "v4.h[0x7]": 6077,
      "v19.1q": 6078,
      "maxpd": 6079,
      "#0x2^27": 6080,
      "ld1sb": 6081,
      "ymm26": 6082,
      "ssubl": 6083,
      "v6.h[0x5]": 6084,
      "movdq2q": 6085,
      "z9.s": 6086,
      "pfmax": 6087,
      "sha256h2": 6088,
      "ymm11{k6}": 6089,
      "xmm3{k5}": 6090,
      "fiadd": 6091,
      "mm6": 6092,
      "rdi": 6093,
      "vcmpgess": 6094,
      "v10.2d": 6095,
      "b18": 6096,
      "movd": 6097,
      "shrn": 6098,
      "v23.d[0x1]": 6099,
      "ymm5{k7}{z}": 6100,
      "xmm2{k5}": 6101,
      "vcmpneqpd": 6102,
      "ymm22{k5}": 6103,
      "bsr": 6104,
      "ldeoral": 6105,
      "v3.h[0x4]": 6106,
      "v27.d": 6107,
      "bge": 6108,
      "v22.2d": 6109,
      "bne": 6110,
      "vfmadd132sd": 6111,
      "cmovnc": 6112,
      "ushll": 6113,
      "slli": 6114,
      "s11": 6115,
      "slliw": 6116,
      "unpcklps": 6117,
      "pfsub": 6118,
      "swpb": 6119,
      "-0x2^31": 6120,
      "vcomisd": 6121,
      "pextrb": 6122,
      "xmm24{k1}": 6123,
      "v2.4s": 6124,
      "fcadd": 6125,
      "vl7": 6126,
      "ymm23{k1}": 6127,
      "v3.h[0x6]": 6128,
      "xcryptcfb.rep": 6129,
      "xmm18{k6}": 6130,
      "punpckhdq": 6131,
      "vextractf32x8": 6132,
      "v28.d": 6133,
      "v18.h[0x3]": 6134,
      "vsqrtss": 6135,
      "ldaprb": 6136,
      "cpyfe": 6137,
      "x10": 6138,
      "b30": 6139,
      "ymm11{k5}{z}": 6140,
      "cmovge": 6141,
      "ymm25{k4}": 6142,
      "z29.d": 6143,
      "vfnmsub213sd": 6144,
      "palignr": 6145,
      "ymm11{k6}{z}": 6146,
      "#-0xa": 6147,
      "z1.d[0x1]": 6148,
      "vmaskmovpd": 6149,
      "dx": 6150,
      "fisttp": 6151,
      "#-0x2^1c": 6152,
      "mvni": 6153,
      "z7.s[0x3]": 6154,
      "vpermt2pd": 6155
    }
  }
}